<pad>
<EOS>
<unk>
<s>
</s>
▁the
.
,
s
▁to
▁a
▁of
▁and
▁in
'
-
▁that
▁for
▁on
▁is
▁"
▁was
▁with
▁The
▁it
▁
▁said
▁as
▁at
▁he
▁I
▁be
▁have
▁from
▁by
▁his
t
▁has
▁are
:
▁-
▁an
▁not
,"
▁her
▁who
▁this
▁they
▁had
"
▁but
▁their
▁will
▁been
▁you
▁were
▁she
▁'
▁we
▁about
▁which
▁or
▁after
▁more
▁one
ing
▁out
▁up
▁would
▁can
▁(
▁also
▁It
▁when
▁A
ed
▁all
▁people
d
."
▁He
▁over
)
▁than
▁its
▁time
m
▁into
▁so
▁Trump
▁In
▁two
▁first
▁there
▁year
▁But
re
▁what
▁just
▁like
▁Mr
▁could
▁him
▁new
▁last
▁other
▁them
▁years
▁if
▁no
▁my
I
▁some
▁do
▁our
▁back
▁told
ly
?
▁now
S
▁before
▁being
▁get
▁only
a
▁me
▁how
▁because
er
▁where
e
▁says
▁most
▁against
y
▁made
▁three
▁We
▁while
▁your
▁off
▁make
▁And
▁down
▁She
▁then
▁any
▁U
▁way
ve
▁many
▁home
year
▁even
▁very
▁work
▁those
▁New
▁through
▁day
▁well
▁going
▁during
▁think
n
▁did
▁government
▁take
▁much
▁world
▁week
▁still
▁This
▁around
▁since
;
▁between
▁don
▁see
▁know
▁They
▁say
▁go
▁should
old
▁such
▁including
▁team
▁found
▁may
▁want
▁good
▁these
▁life
▁part
▁country
▁long
▁family
in
▁under
▁US
▁women
r
The
▁right
▁former
▁us
▁own
▁man
▁million
▁show
▁police
▁percent
▁President
▁need
▁per
▁another
▁four
▁company
th
▁next
▁second
▁--
▁left
▁both
▁really
▁children
▁UK
▁game
▁come
▁high
▁end
▁state
▁help
▁There
▁same
▁president
▁United
▁set
▁de
▁added
▁That
▁public
o
▁got
▁too
▁used
▁best
ll
▁according
▁called
We
/
▁House
▁season
▁never
es
▁place
▁group
▁deal
▁five
▁put
▁took
▁use
i
▁top
▁night
▁If
▁10
▁As
▁later
▁away
▁came
▁days
▁number
al
▁didn
▁look
▁media
▁months
▁support
▁May
▁won
▁Image
▁here
It
▁every
▁North
▁might
▁something
▁month
▁York
▁seen
▁play
▁report
▁lot
▁case
▁school
▁American
▁without
▁few
▁little
▁far
▁So
▁For
▁You
▁went
▁S
▁win
▁across
▁past
▁statement
▁London
▁big
▁Friday
▁When
▁Ms
▁again
▁things
▁South
▁China
▁men
▁better
▁each
▁On
▁Russia
▁Monday
▁six
▁already
▁change
▁having
ers
▁head
▁campaign
▁saying
▁Tuesday
▁court
▁until
▁social
▁always
▁side
▁Sunday
▁money
▁One
▁city
▁health
▁woman
to
A
▁party
▁whether
▁find
▁cent
▁different
on
▁start
▁great
▁political
man
▁At
▁reported
▁business
▁making
▁Wednesday
▁young
▁early
▁car
▁Thursday
▁working
▁1
▁face
▁asked
▁market
▁British
▁become
▁England
▁does
▁point
▁half
▁taken
▁World
▁ago
▁re
▁feel
▁less
▁wrote
▁O
▁White
),
C
▁local
▁run
▁least
▁20
▁able
▁States
▁news
▁2
▁law
▁move
▁death
▁hit
▁Saturday
▁recent
▁Russian
g
the
▁give
▁ever
▁thought
▁City
▁decision
▁keep
▁After
▁hard
▁why
▁following
▁system
▁likely
▁power
▁un
▁known
▁full
▁mother
up
▁pay
en
▁third
▁officials
▁black
▁given
▁love
▁times
▁members
▁John
▁star
▁No
▁among
▁though
▁final
▁enough
▁EU
▁taking
▁often
▁future
▁close
▁today
▁players
▁behind
▁person
▁must
▁thing
▁together
▁several
▁water
▁E
▁data
▁University
or
▁trade
▁What
▁European
▁important
▁house
▁comes
▁doing
▁once
▁D
▁attack
▁job
▁National
an
▁caption
▁lead
▁Facebook
▁expected
▁3
▁investigation
▁clear
...
▁national
▁information
▁security
▁Brexit
▁trying
▁video
▁4
▁March
!
▁open
▁hours
▁meeting
▁started
▁study
▁body
▁Washington
▁getting
▁real
▁However
▁area
▁12
▁line
▁done
▁lost
▁yet
▁chief
▁points
▁Australia
▁director
▁series
▁News
▁His
▁looking
▁Britain
▁Police
▁Dr
▁small
▁believe
▁using
▁office
▁doesn
▁co
▁call
▁due
▁major
▁live
▁free
▁B
▁wanted
▁West
▁almost
▁2018
▁companies
▁weeks
▁To
▁near
▁election
▁story
▁earlier
▁care
▁billion
▁child
▁war
▁late
▁couple
▁announced
▁risk
▁father
▁Donald
▁food
▁While
▁outside
▁son
k
▁white
▁further
▁military
▁saw
▁2016
▁5
▁Korea
▁role
▁died
▁C
▁name
▁staff
▁minutes
▁leader
▁countries
▁Cup
▁coming
l
▁along
▁post
▁possible
▁himself
▁18
▁Scotland
▁history
▁killed
▁vote
▁fire
▁T
▁front
▁David
▁State
able
▁club
▁old
▁games
▁service
▁film
▁am
▁policy
▁League
▁fact
p
▁issue
▁led
▁America
▁played
▁record
▁course
▁An
▁forward
▁international
▁within
▁held
▁return
▁leave
▁15
▁daughter
▁administration
▁moment
▁plan
▁continue
B
▁control
▁research
▁St
▁kind
).
▁morning
▁others
▁With
▁became
▁parents
▁Now
2
▁seven
▁began
▁try
▁stop
▁room
▁order
▁bit
▁wife
▁event
▁shows
▁process
▁released
▁official
▁Twitter
▁large
▁30
▁friends
▁11
▁someone
▁Department
▁short
▁G
▁ahead
▁age
▁hand
▁career
▁tax
▁evidence
com
▁M
▁fans
▁sure
▁community
▁January
▁services
▁shot
and
▁April
▁revealed
▁low
▁online
▁air
▁action
▁legal
▁recently
▁human
▁France
▁book
▁means
▁border
▁anything
▁All
▁Some
▁wasn
▁eight
▁whose
▁June
▁special
▁industry
▁plans
▁level
▁F
▁James
▁nearly
▁experience
▁sexual
▁Michael
▁problem
▁single
▁Europe
▁6
D
▁actually
▁relationship
▁...
▁gave
▁interview
am
▁reports
h
▁TV
▁strong
▁playing
▁Court
▁goal
▁hospital
▁despite
▁cut
▁felt
▁building
▁Republican
▁result
▁showed
▁issues
▁sent
▁let
▁received
▁rather
G
▁Her
▁heard
▁current
c
▁Kim
▁financial
T
▁nothing
▁executive
▁makes
▁Minister
▁minister
▁anti
▁involved
time
▁player
un
▁claims
▁everything
▁hope
▁French
▁lives
▁match
▁living
▁cost
▁heart
▁Democrats
N
P
▁Chinese
▁copyright
▁December
▁2017
▁worked
▁include
▁California
▁students
▁global
▁happened
▁idea
▁potential
▁period
▁accused
▁tell
▁space
▁question
▁summer
is
▁incident
▁N
▁November
▁race
▁latest
▁running
▁share
▁7
▁price
▁key
▁manager
▁fight
▁8
le
▁K
▁turn
▁biggest
▁inside
▁chance
▁red
▁firm
▁BBC
▁however
▁rights
ton
▁looked
▁bring
1
▁private
▁14
no
▁pressure
▁My
u
▁13
▁met
▁football
▁interest
▁federal
▁everyone
▁response
▁P
▁needed
▁turned
▁visit
▁position
co
▁spent
▁July
▁member
▁light
▁oil
▁described
▁longer
▁economic
▁themselves
▁talk
This
▁increase
▁whole
ic
▁stay
▁difficult
▁Australian
▁impact
▁R
▁leaders
▁general
▁husband
▁friend
▁foreign
▁soon
▁bad
▁based
▁matter
it
▁higher
ness
▁growth
▁personal
▁phone
▁provide
▁senior
▁16
▁appeared
▁17
ar
▁ball
▁published
▁brought
▁claimed
▁50
▁offer
▁Street
▁stage
▁October
▁tried
▁economy
▁list
▁form
▁Paul
▁similar
K
▁coach
▁music
▁meet
▁anyone
▁comment
▁access
ia
▁Times
te
▁break
▁How
▁By
▁isn
▁round
▁De
f
▁needs
▁authorities
▁non
ne
▁pair
▁9
▁Saudi
▁ground
ist
us
▁workers
▁self
▁weekend
▁remain
▁paid
▁Senate
▁September
▁remains
▁According
▁technology
▁shared
▁available
▁100
▁performance
▁hold
4
▁quite
▁leading
ley
▁baby
▁Re
▁knew
▁board
▁wants
▁road
▁average
▁huge
▁areas
R
▁especially
▁continued
▁rest
▁George
▁cancer
▁Last
▁Labour
▁February
▁program
▁La
▁helped
▁agreement
▁Day
▁situation
▁Germany
▁sense
▁previously
F
▁Scottish
▁Iran
▁currently
▁W
▁rate
▁capital
ch
▁town
▁quarter
▁officer
▁probably
▁treatment
▁Park
▁officers
▁cause
w
▁example
▁drug
▁sex
b
▁total
▁families
▁19
E
▁pre
▁p
▁previous
▁force
▁mean
▁allowed
▁site
ie
▁questions
▁violence
▁dead
▁cases
▁patients
▁problems
▁nine
▁L
▁groups
▁medical
▁25
▁sign
▁press
▁serious
▁release
▁spokesman
▁energy
▁loss
▁Syria
▁Democratic
▁Al
▁seems
▁step
▁Instagram
based
▁San
▁J
z
▁victory
▁read
▁changes
ity
▁either
▁reason
▁states
▁wrong
▁happy
age
▁confirmed
▁included
▁thousands
▁decided
5
▁leaving
▁project
▁abuse
He
▁results
de
▁training
▁girl
▁Christmas
▁40
na
▁arrested
el
▁account
▁Ireland
▁buy
▁Korean
▁shooting
▁test
▁scene
▁understand
▁East
▁main
▁ex
▁rise
▁quickly
▁instead
ling
ry
▁failed
▁bill
▁Mark
▁agency
▁worth
▁message
▁talks
▁fall
▁la
▁nuclear
▁model
▁forced
▁gun
3
▁safety
▁adding
▁Manchester
▁letter
▁rules
▁sales
▁customers
▁particularly
▁charges
▁fell
less
▁field
▁property
▁conference
▁moved
▁August
▁These
▁H
▁popular
▁kids
▁growing
▁products
▁Smith
▁happen
▁concerns
▁stand
▁allow
▁opportunity
▁terms
▁posted
▁else
▁travel
▁conditions
▁gone
▁Florida
▁victims
▁cannot
▁create
▁region
▁named
▁nation
▁centre
▁trial
There
▁Prince
▁Los
▁itself
▁significant
▁prison
▁agreed
▁photo
▁allegations
ation
L
▁County
of
▁focus
▁War
▁Obama
▁Congress
▁words
▁giving
▁opening
as
▁goes
il
son
▁Union
be
▁range
▁caused
▁takes
▁female
▁bank
led
▁murder
▁lower
▁More
▁warned
▁although
▁mind
▁spending
▁believed
You
▁21
▁claim
▁looks
▁Secretary
▁comments
▁Republicans
ment
▁development
▁Jones
▁Johnson
▁Co
▁hands
▁German
▁en
▁crisis
▁attention
▁production
▁Man
▁Even
▁view
▁raised
▁efforts
▁alleged
▁trip
▁simply
off
▁injury
▁events
▁Two
▁build
▁researchers
▁boy
▁couldn
▁calls
▁blood
▁prices
▁Office
▁charged
▁Paris
▁figure
one
ion
▁crime
▁charge
▁Israel
▁reach
▁People
▁pro
at
▁challenge
▁speech
▁Government
▁decades
▁towards
▁above
▁land
▁costs
▁effort
▁2015
▁International
▁jobs
▁winning
▁watch
▁kept
▁Mexico
▁immediately
day
▁approach
▁First
▁certain
▁followed
M
▁Prime
▁ready
▁largest
▁Sydney
▁protect
▁ended
▁fourth
▁website
▁majority
▁levels
▁Wales
rs
▁partner
▁success
▁act
out
ism
▁threat
▁immigration
▁forces
term
▁Not
est
▁calling
7
▁School
▁users
▁true
▁movement
6
▁created
me
▁ask
If
▁title
▁24
▁talking
▁judge
▁ensure
▁amount
ian
▁host
▁Justice
▁review
ra
▁effect
▁Angeles
▁source
W
▁investment
▁common
x
▁easy
▁term
▁admitted
▁Chris
▁signed
ta
▁changed
▁student
▁offered
▁secretary
▁date
ty
▁miles
pm
▁Le
▁spoke
▁Council
▁expect
▁gas
▁walk
▁reached
▁criminal
▁Royal
▁pretty
▁avoid
▁value
▁movie
ma
▁ban
▁suggested
▁Robert
▁King
▁rates
▁hotel
▁scored
▁condition
▁disease
▁arrived
▁Another
▁details
▁weapons
▁hair
▁sold
▁flight
land
▁Health
▁built
▁eye
▁Ben
▁moving
▁works
▁tweeted
▁alone
▁lack
▁Harry
▁safe
▁Party
▁missing
?"
▁opened
▁feeling
H
▁hearing
▁goals
▁denied
▁pass
▁Putin
▁street
▁English
▁y
▁CNN
▁Amazon
▁Americans
▁driver
▁figures
▁herself
▁reality
▁speak
▁evening
▁ways
▁cash
▁Then
▁compared
▁starting
▁beat
▁joined
é
▁art
▁wedding
▁central
▁Scott
▁appears
ir
ter
▁schools
O
▁extra
▁cover
▁door
▁increased
▁Many
▁politics
▁considered
▁Williams
▁picture
▁hour
▁annual
▁Peter
▁straight
▁drive
▁prime
▁address
▁contract
▁finally
▁funding
▁Italy
by
▁pick
▁Do
▁launched
do
▁assault
▁via
▁damage
▁FBI
da
▁voters
▁attacks
▁brain
ur
▁Africa
▁weather
▁competition
▁Center
▁middle
▁paper
▁explained
▁driving
▁positive
▁Be
▁stock
▁teams
▁committee
▁sea
▁victim
▁Martin
▁returned
▁hear
▁d
▁wouldn
▁seemed
▁demand
▁born
▁track
▁target
▁passed
▁double
8
▁Of
▁lawyer
▁north
▁intelligence
▁22
▁Liverpool
▁appear
▁sometimes
▁presidential
▁class
▁Brown
▁seem
▁certainly
▁residents
▁Video
au
▁climate
▁modern
▁Tom
▁closed
la
▁wearing
ting
▁Japan
▁attempt
▁beyond
▁caught
▁myself
▁Fox
▁culture
▁o
▁injured
▁Premier
▁Google
▁brother
▁Mueller
▁India
▁i
▁bar
In
▁follow
▁cars
▁ability
▁weight
J
▁store
▁From
▁mental
▁includes
▁Committee
▁network
▁spend
▁2016,
▁reporters
▁present
▁pain
▁floor
▁Black
▁hundreds
▁character
▁train
▁fear
▁natural
▁yn
▁league
▁Texas
▁suffered
▁telling
▁throughout
▁gold
▁Northern
▁save
▁education
▁Mo
▁decade
▁Red
9
▁tariffs
▁drugs
▁blue
▁2017,
▁guilty
▁meant
▁Despite
▁dog
▁reportedly
▁African
go
▁afternoon
ro
▁amid
▁table
▁population
▁Me
▁deep
▁search
▁skin
▁parts
▁station
▁prevent
▁homes
▁remember
ies
▁wall
▁contact
▁word
▁Clinton
▁Mike
▁e
▁thinking
▁highest
▁Canada
▁El
▁girls
▁complete
▁perhaps
▁version
U
ine
▁numbers
▁parties
▁showing
▁Thomas
▁shares
▁battle
▁brand
▁Or
▁ran
▁lose
▁married
▁choice
▁sell
▁opposition
▁television
▁fine
▁employees
▁Ryan
▁multiple
▁entire
▁Post
▁Group
▁Meanwhile
▁south
▁Andrew
▁runs
▁issued
▁2014
▁original
▁MPs
▁summit
ted
▁spot
▁Bill
▁influence
ad
▁60
▁improve
▁Mrs
▁fellow
▁23
▁tough
▁High
▁tour
▁budget
▁served
▁actor
▁powerful
▁debate
V
▁experts
▁l
▁Our
back
Y
▁NHS
▁toward
▁alongside
▁gets
▁quality
▁businesses
▁image
▁sort
▁attorney
▁sister
▁During
▁worst
▁$1
▁fashion
00
we
▁seeing
▁carried
▁department
▁emergency
▁sanctions
▁crash
▁provided
▁vehicle
▁particular
▁stories
▁General
▁author
▁raise
▁Here
▁investors
▁elections
▁consider
▁asking
▁leadership
▁warning
▁eyes
▁Apple
▁Syrian
▁completely
▁bid
▁learn
▁designed
▁injuries
▁answer
▁Bank
▁green
▁defense
▁birth
▁individual
▁justice
▁chairman
▁killing
ish
ner
▁eventually
▁feet
▁f
se
▁holding
▁Just
▁believes
▁Since
line
▁poor
▁rule
▁winner
▁mid
▁fast
▁fun
Reuters
▁Spain
▁whom
▁Mar
▁council
▁putting
▁becoming
▁storm
▁affected
▁fan
▁practice
ol
▁confidence
▁discovered
▁policies
▁base
▁actress
▁perfect
▁holiday
▁wide
▁agent
field
per
▁voice
▁Richard
0
▁dropped
▁Most
▁Moscow
▁environment
▁society
▁app
▁shown
▁older
▁crowd
▁written
They
▁Theresa
os
▁laws
▁male
▁cast
▁center
ex
▁type
▁reduce
▁CEO
▁facing
ler
▁planned
▁successful
▁cities
▁dangerous
▁2018.
▁hot
▁push
▁owner
▁fighting
▁Queen
▁rose
he
▁writing
ge
▁stopped
▁cross
id
▁dark
▁subject
▁piece
▁additional
▁fully
▁independent
▁Green
▁ice
▁watching
▁Cohen
▁Home
▁normal
▁broke
▁V
▁Chelsea
▁Photo
▁Hill
▁ten
di
▁Yet
▁Lee
▁dress
▁finished
▁doubt
for
▁required
▁physical
▁losing
▁continues
▁Bush
▁size
▁responsible
▁Both
▁credit
▁Italian
▁Un
▁union
▁seeking
▁style
▁benefits
▁restaurant
▁below
▁row
▁wait
▁add
▁professor
▁domestic
ally
▁exactly
▁2016.
▁join
▁launch
▁planning
▁actions
▁Open
▁traditional
▁Don
▁Why
▁drop
▁stars
▁waiting
▁boss
▁sports
▁views
▁twice
▁Although
▁check
▁fund
▁plane
▁supporters
ary
▁candidate
▁concern
▁sector
▁addition
▁beginning
▁boys
▁receive
ise
▁sleep
▁Con
▁civil
▁Their
▁plastic
▁concerned
ka
▁respect
▁box
▁island
▁lived
▁Turkey
▁marriage
20
ce
▁fresh
ized
ri
▁doctor
▁carry
▁identified
▁Go
▁aware
▁famous
ke
ni
▁places
▁footage
▁tweet
▁Sir
▁Melbourne
▁draw
right
▁Air
▁begin
▁70
▁Steve
▁Other
▁markets
▁simple
▁camera
▁Edinburgh
▁Association
▁measures
▁peace
▁activity
▁design
▁email
▁Institute
▁heavy
▁squad
ful
▁card
▁helping
▁Sam
▁regular
▁park
▁clearly
▁2017.
▁language
▁Hollywood
▁century
▁hopes
▁MP
▁Daily
▁mass
▁rising
▁Sen
▁photos
▁product
▁cold
▁appearance
▁allegedly
▁management
▁progress
▁Alex
▁bought
et
▁champion
▁con
▁trust
ate
▁v
▁professional
▁massive
▁managed
▁difference
▁usually
▁send
▁faces
▁benefit
▁surgery
li
▁serve
ive
▁highly
nd
▁critical
▁sale
▁fit
▁Supreme
▁beautiful
▁Those
▁separate
▁spread
ci
▁income
ber
▁Can
▁missed
▁£1
▁Super
▁images
▁fired
▁onto
▁bus
▁loved
▁Reuters
▁respond
▁Kelly
▁strategy
den
▁worse
▁speaking
▁Big
▁score
▁eat
▁content
▁haven
pe
▁Press
▁committed
▁Over
▁giant
▁RT
▁migrants
▁refused
▁faced
▁request
▁sitting
▁treated
▁aren
▁criticism
▁direct
▁newspaper
▁responded
▁rare
▁noted
▁operations
bn
▁option
▁offers
ft
▁standing
▁status
ant
▁sport
▁programme
ating
▁sit
▁reasons
▁Arabia
▁seat
▁advice
▁Road
▁overall
▁maybe
▁page
▁illegal
▁documents
▁Women
▁ruling
▁features
▁defeat
▁singer
▁Meghan
▁directly
▁greater
▁27
▁strike
▁audience
▁Carolina
▁snow
▁vehicles
▁arrest
▁accounts
▁al
▁speed
▁announcement
▁finding
▁26
▁specific
▁Sea
▁increasingly
▁doctors
▁Israeli
▁suggests
▁gender
ised
▁linked
▁operation
▁net
▁Today
▁Olympic
▁behaviour
▁offering
▁protest
▁declined
▁scientists
▁proposed
million
▁aged
▁Hall
▁developed
▁le
▁Images
▁pm
▁sides
▁Security
▁Year
▁various
▁daily
lo
▁28
▁clean
▁Commission
▁Jan
▁gives
▁material
▁conversation
▁millions
▁nature
▁struck
all
like
▁sound
men
▁housing
▁defence
▁legislation
▁animals
▁ceremony
▁Former
▁yards
▁Foreign
▁band
▁Irish
▁fair
▁Sun
▁tournament
▁Under
▁healthy
▁royal
▁Di
▁charity
▁Western
side
▁finish
▁guy
▁removed
▁Joe
▁Games
▁surprise
▁Will
▁pulled
▁streets
▁grow
▁citizens
▁communities
▁learned
▁limited
▁touch
▁penalty
▁platform
▁heat
▁truth
▁minute
▁appeal
▁Act
UPI
lin
ier
▁Pro
▁song
▁artist
▁suspect
▁Jack
mo
▁super
▁article
▁die
▁William
▁signs
▁internet
▁develop
im
▁passengers
▁digital
▁feels
▁sources
▁scandal
!"
▁primary
▁options
▁block
▁winter
▁seek
When
▁Instead
▁dis
▁joint
▁protests
▁walking
ca
▁remained
▁Corbyn
▁bed
▁dinner
▁rain
▁trading
▁God
▁Bay
▁jail
ham
▁responsibility
▁shop
▁suggest
▁Sky
▁airport
con
▁complex
▁lines
▁younger
▁generation
▁selling
▁largely
▁colleagues
▁aid
▁leg
▁related
▁conflict
▁debt
ster
▁suit
▁Jackson
▁potentially
▁conservative
▁mission
▁church
▁Service
▁secret
▁keeping
▁Speaking
▁knows
▁referendum
v
▁ordered
way
▁happens
bo
▁80
▁university
▁focused
▁Wall
▁politicians
▁debut
▁drink
▁district
▁Star
▁mark
▁Chicago
▁Matt
▁fifth
▁broken
▁estimated
▁produced
▁flat
▁unable
▁funds
▁voted
▁filed
▁emerged
ak
▁reporting
▁mostly
▁Hospital
▁Arsenal
▁episode
▁college
▁steps
ha
▁yesterday
▁beauty
▁split
▁advantage
▁agree
▁ABC
▁coast
mer
▁nice
▁prepared
▁proud
▁tech
▁nearby
▁thanks
▁enjoy
▁wear
▁hasn
▁tells
▁allies
▁plays
▁regime
▁survey
▁bottom
▁repeatedly
▁yourself
▁beach
▁meaning
▁records
▁quick
▁90
▁stuff
▁Sarah
▁bigger
▁deaths
▁discuss
▁grew
▁placed
▁guys
▁Macron
▁display
▁upon
▁hurt
▁award
▁systems
ul
▁rescue
▁ongoing
▁necessary
▁effects
▁NFL
▁Virginia
▁animal
▁Lo
▁29
▁Central
▁failure
▁arms
▁traffic
▁feature
long
▁kill
▁Island
▁Glasgow
op
▁harassment
▁arm
▁paying
▁200
▁pictures
▁Like
▁chemical
▁cells
▁Love
▁Sweden
▁drama
▁individuals
▁secure
▁publicly
▁District
▁Research
ous
▁suffering
▁Three
What
▁Bo
▁note
▁names
▁introduced
▁accept
▁camp
▁Stephen
▁parliament
end
▁slow
ut
▁enforcement
▁deliver
▁Cambridge
▁supply
▁Olympics
ko
▁commercial
My
▁Democrat
▁Chief
▁journey
▁findings
▁negotiations
▁Nations
▁organization
▁collection
▁allowing
▁bringing
▁counter
▁recorded
▁500
not
▁2012
▁Car
ey
ger
▁window
▁cuts
▁balance
▁studies
▁Great
▁science
▁boost
▁presence
▁wake
▁CBS
▁sought
▁captain
▁governor
▁Judge
▁initially
▁messages
▁lawmakers
▁2013
▁Real
▁choose
▁exchange
▁produce
▁amazing
▁Kevin
▁carrying
▁radio
▁decisions
▁dollars
▁strength
▁warm
▁READ
va
▁expressed
▁Young
▁threatened
▁estate
▁foot
▁firms
▁attend
▁Parliament
▁experienced
▁Coast
▁candidates
▁freedom
▁sat
▁patient
▁par
▁attended
der
▁banks
▁walked
▁Daniel
▁measure
ent
▁aircraft
▁dream
▁protection
▁path
▁Charles
▁southern
▁active
▁extremely
▁effective
▁seriously
▁plenty
▁journalist
▁Ma
▁changing
▁happening
▁remaining
pa
▁Beijing
▁alcohol
▁deputy
▁screen
▁Li
▁urged
▁Kavanaugh
▁album
▁increasing
▁Zealand
tic
▁spring
▁scheduled
▁sun
▁sentence
▁welcome
▁UN
▁eating
▁Christian
▁troops
▁proposal
▁semi
▁matches
▁birthday
▁Because
▁Davis
That
▁Earlier
▁emotional
▁prove
▁insisted
▁starts
▁Nick
▁mis
▁covered
▁College
▁standards
sh
▁lawsuit
▁Spanish
▁basis
▁setting
▁items
She
▁scheme
▁absolutely
▁books
▁picked
▁Celtic
▁stores
▁reading
▁coalition
▁expensive
▁Dan
▁northern
▁2015,
▁fish
▁pushed
▁struggling
▁Mail
▁analysis
▁controversial
ah
▁fuel
▁Victoria
▁initial
▁pop
▁Z
▁Fire
▁write
ford
▁unlikely
▁smaller
▁MORE
▁falling
▁standard
▁remove
▁Earth
▁assistant
▁easily
▁Grand
▁Playing
▁decide
▁Lewis
ck
▁conduct
les
▁Who
▁expert
▁mum
▁dad
▁mobile
▁bag
▁plus
▁turning
za
ated
▁Media
▁se
▁definitely
▁argued
▁Madrid
▁des
▁Brazil
▁magazine
▁knowledge
▁owners
▁corner
▁creating
house
▁insurance
▁stood
▁pitch
▁leaves
▁shut
▁reform
▁counsel
▁Kate
▁larger
▁Rangers
▁false
▁Champions
▁providing
▁behavior
min
▁unit
▁crew
▁plant
▁spokesperson
um
Getty
▁miss
▁teacher
▁moments
▁acting
▁chain
▁closer
▁Bar
▁31
▁et
▁hoping
▁Jordan
▁resources
▁species
▁adults
▁revenue
▁sub
▁era
▁relations
▁supported
▁pointed
▁scale
▁spokeswoman
▁c
▁challenges
▁Good
j
▁willing
▁explain
▁solution
▁probe
ard
free
▁completed
▁Jeremy
▁Rep
▁Taylor
▁ill
AP
▁du
▁consumers
ga
rd
▁learning
▁declared
▁Still
▁violent
▁wild
▁van
▁Ford
▁Tory
▁familiar
▁pull
▁Jo
5,000
dy
che
▁Best
▁Su
ig
uk
▁determined
well
▁teachers
▁claiming
▁apartment
▁dance
called
▁limit
▁bodies
ney
▁worried
▁adviser
▁whatever
▁Asia
▁visitors
▁Mary
▁wore
▁gap
▁watched
▁votes
io
▁Before
▁rally
ring
▁activities
▁threats
▁location
▁crimes
ek
▁ruled
▁Turkish
▁construction
▁wind
▁slightly
▁delivered
▁require
▁Show
▁attempted
▁profit
▁Federal
▁severe
▁causing
▁exercise
▁writer
▁drivers
▁risks
▁wish
▁tests
over
kin
▁involving
▁negative
▁projects
▁Jr
▁opportunities
ja
▁considering
▁banned
▁Indian
▁grand
▁Simon
▁widely
▁ring
▁wine
▁possibility
▁ultimately
▁prosecutors
▁Graham
▁catch
▁Japanese
▁understanding
▁steel
▁Jeff
▁session
▁Ho
▁Time
▁cool
▁fly
▁visited
▁poll
▁Middle
ize
▁shortly
month
▁gain
▁opinion
▁founder
▁vice
▁favourite
▁Reporting
▁pool
ze
▁unique
▁village
▁immigrants
▁festival
▁kitchen
▁Ka
▁buying
▁user
▁critics
▁rape
▁shift
▁Miss
▁infrastructure
▁replace
▁fraud
▁treat
▁rival
▁direction
▁Club
▁loan
▁investigating
▁vulnerable
ana
▁Well
▁identity
▁$5
very
▁trouble
▁Adam
▁convicted
▁reaction
▁tackle
ti
▁environmental
▁shock
▁River
▁fears
▁interests
▁rejected
▁hate
▁accident
▁pace
▁lawyers
▁proved
▁interested
▁panel
▁Gold
▁ride
wing
wood
▁Boston
0,000
▁serving
▁35
▁suicide
▁backed
▁shopping
▁Tim
▁associated
▁west
30
▁temperatures
▁Se
▁affect
No
▁struggle
▁coffee
▁Ar
▁seats
▁easier
▁Reporter
▁promised
▁fake
▁Once
king
▁Jong
▁Editing
▁armed
▁east
ov
▁commitment
▁kick
▁shape
▁rock
▁ship
▁entered
sen
▁spotted
▁Palace
▁targeted
▁suspended
▁attacked
▁Islamic
▁dating
▁contributed
▁Brussels
▁route
▁agents
▁Crown
▁partners
▁harm
ning
▁2011
Z
▁extreme
▁Anthony
▁inquiry
▁edge
▁Ko
▁developing
▁nor
▁elected
▁confident
▁transition
▁boat
fi
so
▁pregnant
▁waste
▁reveal
▁ties
▁Ex
run
▁surface
▁operating
▁cell
▁stress
▁Up
▁Canadian
▁agencies
▁Iraq
ance
▁devices
▁Netflix
▁Centre
▁smart
▁sweet
▁background
▁coverage
▁Georgia
▁offensive
▁Professor
▁Foundation
ron
▁Khashoggi
▁2010
red
▁flu
ina
▁occurred
▁investigators
▁incredible
50
▁text
▁Jim
▁supposed
▁connection
▁enjoyed
▁2019
▁identify
▁skills
▁About
▁consumer
ho
▁Stadium
car
▁diet
▁sites
▁glass
▁blame
▁seconds
▁alternative
ship
▁guard
▁GOP
▁adds
▁computer
▁existing
▁Wilson
As
▁apart
▁Agency
▁allows
if
don
▁suspected
po
▁transport
hour
▁entirely
▁nations
▁chair
▁regional
▁wins
▁transfer
▁established
▁PM
▁1,
▁inspired
gu
▁circumstances
point
▁Old
▁draft
▁approved
▁Ali
▁earned
era
▁returning
▁b
que
▁receiving
▁Army
▁youth
▁alive
▁Rose
▁dogs
▁apparently
▁classic
▁deals
▁presented
▁Ta
▁$2
▁authority
▁Long
▁Golden
▁clubs
▁truly
▁rich
▁guests
▁Your
▁historic
▁featured
▁excited
▁Iranian
▁sharing
ite
▁Bowl
▁tiny
▁g
▁greatest
▁Beach
▁Ross
▁Sa
▁soldiers
▁supporting
▁testing
▁failing
▁wave
▁Vi
▁1990
▁Na
▁YouTube
▁celebrate
▁understood
▁Per
▁stands
▁multi
▁Lord
▁Conservative
▁basic
▁Arizona
▁electric
▁approval
▁Sanders
▁tie
▁deeply
▁Director
▁Getty
▁di
▁conducted
▁Test
▁films
▁adult
▁immediate
▁Van
▁hits
▁escape
▁obviously
▁enter
▁signing
▁provides
▁shots
▁Barcelona
ville
▁En
▁achieve
▁sugar
▁Tony
hi
star
▁vision
▁perform
▁Mc
▁grown
▁tree
▁fat
▁Wood
▁Morgan
▁gay
gi
▁zone
▁device
▁Miller
▁Jewish
▁talent
▁captured
▁Francisco
▁flying
▁Attorney
▁weren
▁mayor
▁possibly
▁sending
▁cultural
▁determine
▁heading
▁Po
ial
▁corporate
▁busy
▁worry
▁customer
▁asylum
▁religious
▁reduced
▁memory
▁Y
▁Pe
▁Force
▁raising
▁regularly
▁Also
▁2018,
▁2015.
ba
▁symptoms
▁closely
▁equal
down
▁interesting
▁fill
▁NBC
▁ministers
▁Winter
▁vast
▁surprised
▁journalists
▁attempts
▁distance
▁comfortable
han
▁les
▁jury
ung
▁prior
class
style
▁continuing
▁Only
▁tight
▁drinking
▁Among
▁Public
▁£2
more
▁equipment
▁accepted
▁crucial
▁passing
▁Du
▁Law
▁Four
▁decline
▁apply
▁goods
▁consequences
▁mix
▁chances
▁machine
▁Ca
▁Ro
▁turns
▁Human
%
ker
▁exposed
ow
▁relatively
▁degree
ries
ten
▁assets
▁talked
▁FA
▁Mac
▁intended
▁Asian
▁capacity
▁impossible
▁fewer
▁videos
▁internal
▁pushing
▁heavily
▁none
▁Miami
▁models
▁/
▁payments
▁dozens
▁voting
▁girlfriend
▁handed
gen
▁flights
▁danger
▁ideas
Our
▁clothes
▁targets
▁pieces
▁soft
▁meat
▁artists
▁missile
▁producer
▁everybody
▁novel
▁retail
my
▁Ed
▁combined
▁tied
▁memo
▁Out
▁aimed
▁characters
▁struggled
▁jailed
▁Tu
▁Art
ang
▁unclear
ising
▁earnings
▁0
minute
▁stocks
10
ya
▁reputation
▁45
▁Credit
▁parent
▁Lu
▁finance
▁Men
▁dry
izing
▁Elizabeth
▁Q
▁Uber
▁athletes
▁Let
▁document
half
▁commission
▁Space
▁generally
▁custody
▁taxes
▁Philadelphia
▁Ha
ran
▁impressive
▁matters
▁mistake
▁uses
▁Every
▁activists
▁remarks
▁maintain
▁sentenced
ee
▁Though
▁privacy
▁surrounding
▁Muslim
▁owned
▁Church
▁keen
▁Back
▁scoring
▁Inc
▁spoken
▁Life
▁Watch
▁democracy
▁factors
▁Museum
▁unless
▁vs
▁imagine
▁Bridge
▁reveals
▁departure
▁cap
▁truck
▁values
em
▁Ne
▁forecast
▁desire
▁unusual
▁recovery
▁veteran
▁Eric
▁affair
▁performed
▁breaking
▁aim
▁organisation
▁Awards
▁industrial
▁Afghanistan
▁2014,
▁delivery
▁Tesla
▁Houston
her
▁Steven
▁programs
use
▁Championship
ists
▁ending
▁angry
▁retired
▁Senator
▁viewers
▁notice
▁corruption
head
▁pounds
▁Hotel
▁worker
tz
▁10-
▁Markle
▁DNA
▁buildings
▁stadium
▁stepped
▁causes
▁mom
▁leads
▁Pompeo
▁Defense
▁Tour
▁drawn
▁bear
▁1980
▁tonight
▁otherwise
▁statements
▁defend
bi
▁fallen
▁flag
▁dramatic
▁throw
tra
▁USA
▁tend
▁farm
▁purpose
but
▁Patrick
▁stick
▁visiting
▁becomes
ac
▁driven
▁Republic
▁trend
▁guide
▁extended
▁Justin
▁favorite
▁referred
▁32
▁explains
▁compete
▁Frank
▁Moon
▁invited
▁investigate
▁protesters
▁sick
▁dozen
▁refugees
▁analysts
▁army
▁notes
▁Ham
▁upset
▁typically
▁exit
▁rail
▁outcome
For
ging
▁ticket
tor
▁gang
ki
▁garden
ong
▁luxury
▁vital
▁filled
▁Kong
▁originally
▁harder
▁roads
▁knee
▁£3
▁passenger
▁thank
▁Alexander
▁argument
▁striker
▁encourage
▁Michigan
US
▁discussed
law
▁Valley
▁quiet
▁analyst
▁Radio
▁writes
▁Commons
isation
▁concluded
▁Blue
▁Berlin
▁stuck
▁headed
▁Dec
▁dollar
▁Cruz
▁payment
▁recalled
▁Philip
▁Six
▁anniversary
▁factor
▁legs
▁yellow
▁strikes
▁bomb
▁engaged
▁complaints
▁Channel
related
▁Ra
▁promise
.3
▁replied
▁pilot
▁replaced
▁contrast
berg
▁Ministry
low
▁duty
▁earn
▁Comey
▁complaint
ot
▁Hong
▁Cook
▁Merkel
▁appropriate
▁stated
▁Trade
.5
▁mouth
▁rivals
▁Rob
▁relief
▁followers
dis
▁count
▁moves
▁helps
▁facilities
▁code
▁Sports
▁roughly
▁Allen
▁Ukraine
ping
▁retirement
▁Brian
▁heads
game
▁link
▁represent
▁Queensland
To
▁da
▁cabinet
▁closing
▁sad
▁disaster
▁hoped
▁mention
▁designer
▁Social
▁faith
▁Week
▁competitive
▁misconduct
final
▁NSW
▁Game
▁listen
ble
▁ambassador
▁Hamilton
▁trees
▁48
▁advance
▁teenager
▁Airport
▁brief
▁core
▁division
▁$4
▁shouldn
▁pan
▁dismissed
▁reporter
▁bond
▁Am
▁ones
▁editor
▁facility
▁pink
▁square
▁holds
▁Kennedy
▁Louis
▁obvious
▁accusations
▁hole
▁anger
▁effectively
▁quarterback
▁comedy
▁dispute
▁Team
ward
▁territory
▁clients
▁smoke
▁structure
▁Manafort
▁Mexican
▁bin
▁planet
▁significantly
▁deadly
▁agenda
▁Academy
▁employee
▁stunning
▁discussion
▁Murray
▁Fed
fa
born
tu
ization
▁fix
▁Journal
▁expectations
▁dealing
▁properties
▁minimum
▁meetings
▁losses
▁types
▁listed
▁II
ap
▁bright
▁Ohio
▁chose
▁customs
▁snap
▁Jay
▁Oscar
.6
▁blow
▁Maria
▁cutting
▁Pakistan
American
▁granted
▁confirm
▁purchase
ru
▁solid
▁quit
▁Anderson
▁Ten
si
▁stayed
▁fruit
▁sixth
▁colour
▁Harris
▁importance
▁fees
▁$3
▁liberal
▁posts
▁Bob
▁wonder
ence
▁referring
▁Children
▁collapse
▁illness
40
▁forget
lu
▁Singapore
▁bridge
▁saved
▁improved
ny
▁horse
▁essential
▁Guardian
.7
▁Las
▁Te
▁index
▁tensions
▁joining
lan
mar
▁master
foot
▁Vladimir
▁boyfriend
▁eastern
▁Jersey
▁task
▁Hillary
▁prepare
▁Ri
▁province
▁Mourinho
▁shoot
▁guns
▁depression
▁rural
qui
▁defensive
▁follows
▁Free
▁questioned
▁staying
▁detail
▁Daniels
▁Tottenham
▁section
▁racist
▁knife
▁peak
▁usual
▁hat
▁calm
▁regulations
▁seasons
▁Vegas
light
▁suddenly
▁located
▁stronger
ible
▁combination
▁Football
▁prompted
60
▁sharp
▁Lake
▁lucky
▁1,000
nt
▁Asked
▁Welsh
▁regarding
▁Josh
▁studio
▁directed
▁demands
▁Little
▁package
▁Treasury
▁neck
▁profile
▁begins
▁resort
▁lunch
▁inter
▁plants
▁Musk
▁diagnosed
▁lady
▁arrival
▁permanent
▁tested
▁Five
▁priority
▁sees
▁engagement
▁favour
▁therefore
▁sexually
▁Weinstein
▁spirit
▁hitting
▁welcomed
ou
▁suggesting
▁independence
▁aggressive
▁Port
▁promote
▁bench
▁creative
▁instance
▁destroyed
80
▁preparing
▁milk
▁argue
▁diplomatic
▁Catholic
▁Henry
▁drove
▁winds
▁opposite
▁Jamie
▁silver
.1
ure
▁doors
▁behalf
▁humans
▁Global
vi
▁scenes
▁carbon
▁museum
▁prospect
▁contacted
▁emissions
▁Festival
can
▁ourselves
▁honor
▁represents
ji
▁restaurants
ver
▁contest
▁institutions
▁midfielder
▁manage
▁marijuana
▁witness
.8
▁Ad
▁2008
▁mixed
▁tribute
▁ministry
life
▁lying
war
▁funeral
▁opposed
zi
▁Ken
▁counts
▁gathered
▁golf
▁color
▁yes
▁sparked
▁relationships
▁abortion
▁survive
▁numerous
▁shoulder
▁upcoming
▁Southern
▁software
▁cat
▁cards
▁shirt
▁elsewhere
▁judges
▁marked
▁atmosphere
▁Har
▁variety
▁river
▁Matthew
▁Evans
▁medal
▁acknowledged
▁clip
tin
▁Andy
▁breast
▁65
▁Top
▁2020
▁inflation
But
▁drew
▁partnership
▁Ga
Re
▁weapon
port
▁Business
▁exciting
▁tickets
So
▁brings
▁75
▁songs
▁presidency
▁pregnancy
▁sorry
▁Commonwealth
ino
▁wider
bar
▁farmers
▁citing
▁positions
▁western
▁striking
▁hadn
▁bottle
▁clash
ities
▁Live
▁challenging
▁arrive
▁nerve
▁Chi
▁Barack
▁musical
▁AP
▁lots
▁travelling
▁stake
▁wonderful
▁tourists
▁Bi
▁terror
▁Associated
▁returns
▁prize
▁favor
!'
▁Joseph
▁Met
▁gift
▁publication
▁Cardiff
▁knowing
▁actual
▁jump
▁Trust
▁mine
▁congressional
▁opponents
ph
air
▁300
▁honest
▁defender
▁Craig
▁entering
▁requires
gan
▁formal
▁tries
jo
▁tears
ep
▁Pre
▁terrorist
▁Moore
▁broadcast
▁newly
yn
▁2,
▁gained
▁selection
▁reaching
▁tweets
▁2014.
▁port
▁experiences
▁houses
▁Santa
hu
▁native
▁Jason
▁flow
ped
▁incidents
▁Hurricane
▁Walker
▁lift
▁Disney
▁shadow
▁Ru
ably
▁prominent
▁franchise
▁pleaded
▁36
km
▁tea
▁somebody
nes
▁schedule
▁obtained
▁Local
▁fought
▁Ja
▁advertising
▁Cameron
15
▁Family
▁Switzerland
▁widespread
▁(19
▁Newcastle
▁expand
,500
▁rooms
▁indeed
▁combat
▁appointed
▁overseas
▁capable
▁Society
▁rugby
▁Skripal
▁neither
▁praised
▁aside
▁incredibly
▁Hunt
▁Russell
▁Are
van
round
wa
▁Power
▁afford
▁connected
▁cream
▁worldwide
▁tomorrow
▁abroad
▁Phil
▁Ver
▁cameras
▁Gary
▁participants
▁Bell
▁intense
▁cricket
▁sounds
▁properly
▁profits
ties
▁wealth
▁minor
▁33
▁blamed
▁correct
▁Mel
▁lay
▁chicken
▁shocked
▁Several
▁Khan
▁Jean
▁acts
▁Palestinian
▁Jonathan
▁powers
▁resolution
▁plot
▁Hu
▁Yes
▁brands
pre
▁Swedish
▁roles
yard
▁routine
▁Pennsylvania
▁affairs
making
▁motion
▁Jennifer
▁Land
▁Manhattan
ned
mi
▁involvement
▁airline
▁Princess
▁Argentina
▁featuring
▁auction
▁Gar
▁Brisbane
▁taste
▁pension
▁Far
ix
▁ideal
▁Sha
▁buyers
▁Following
▁Company
gar
▁Second
▁Photograph
▁handle
▁application
▁que
▁temperature
work
▁terrible
▁lies
▁percentage
▁Pat
ding
▁activist
▁Atlanta
▁Swiss
▁Pa
▁criticised
▁Pacific
▁Neil
▁invest
▁increases
▁movies
▁childhood
▁channel
▁tennis
▁beating
▁Energy
high
▁jet
▁contain
▁resignation
▁informed
90
▁empty
▁stone
ven
▁1970
▁Water
▁feed
▁roll
▁dressed
▁Having
▁broad
▁exhibition
▁deadline
▁thrown
level
sta
▁anywhere
▁mo
▁coal
ng
▁Westminster
▁cited
▁anxiety
cha
▁Duke
▁Yemen
▁awards
▁dedicated
▁temporary
▁laid
▁£4
▁fantastic
▁threatening
▁reflect
▁elite
▁Douglas
▁degrees
ev
▁extraordinary
▁babies
▁honour
▁frame
▁zero
▁threw
▁chosen
▁Sean
▁faster
▁estimates
▁Sessions
▁celebrated
▁roof
▁silence
▁pet
▁entry
▁pour
▁stretch
▁shoes
▁Pence
▁Medical
▁materials
▁2000
▁detained
▁strongly
▁controversy
▁hosts
▁lowest
▁cannabis
▁absence
▁Tower
▁brilliant
▁fee
▁apparent
▁kid
par
▁suffer
ff
fer
▁damaged
▁marketing
▁Da
▁please
▁ski
ett
▁mountain
ai
▁practices
▁poverty
▁detailed
▁string
▁Alan
ative
▁alert
▁Brooklyn
▁funny
▁Morning
▁Jose
▁Square
▁Down
▁blocked
ris
vo
ette
▁Gaza
▁drinks
▁describe
▁shutdown
▁stolen
▁cave
▁prosecutor
▁pollution
▁settlement
mon
▁locations
stone
▁founded
▁Arab
▁2009
▁assistance
▁posed
af
▁cycle
▁discussions
▁Ian
▁actors
tro
▁jacket
▁Feb
▁overnight
du
▁documentary
▁protected
▁technical
.9
▁Stone
town
▁grounds
▁NATO
▁advanced
▁proposals
▁£5
▁perspective
▁divorce
▁Cleveland
▁Dean
ip
▁Board
▁enjoying
board
▁Francis
▁Night
▁trained
oc
▁trans
▁Where
ology
▁encouraged
▁bills
▁Bolton
▁stable
▁barely
▁Christopher
▁lifestyle
▁mood
▁replacement
▁survived
▁Cross
▁shops
▁fitness
▁expecting
ball
▁possession
▁clothing
▁Lisa
▁Sport
▁labor
▁employment
▁client
▁Lady
▁Ke
▁lie
▁Page
let
▁totally
▁speaks
▁filmed
▁el
▁Poland
▁landscape
▁crossing
▁managing
▁sight
ik
▁ocean
▁officially
▁Duchess
▁Michelle
▁performing
ice
▁gym
▁chocolate
▁Laura
▁Leicester
▁plea
▁frequently
▁noticed
-1
▁Zuckerberg
▁restrictions
▁maximum
ub
▁Part
▁currency
▁Get
pro
▁communications
gy
▁context
▁occasion
mp
▁hundred
ach
▁finds
▁metal
ani
▁minority
▁Jon
▁ends
ue
▁Belgium
▁guest
▁Bre
▁journal
▁specifically
▁criticized
▁applied
▁Town
▁carpet
▁Head
▁reference
▁personality
hand
▁Boris
▁Perhaps
▁delay
▁backing
▁Canberra
▁resigned
▁excellent
▁deficit
▁brown
▁Eastern
▁investigations
ray
▁Independent
▁Woods
▁$7
▁Charlotte
▁headline
▁phase
▁meal
▁nobody
▁specialist
om
▁migration
▁represented
▁rent
▁bail
▁2013,
ick
▁theory
▁Soviet
?'
▁$6
▁Sch
▁bars
▁defending
TV
▁disorder
▁Rock
▁unknown
▁marks
And
▁attacking
▁34
▁genetic
week
▁Services
ery
▁Navy
sky
▁march
▁withdrawal
▁orders
▁consecutive
▁appointment
▁radical
ever
▁hip
▁expansion
▁jumped
▁Pyongyang
▁collected
▁Rick
▁print
▁achieved
▁Warner
▁ancient
▁hero
▁extent
▁desperate
▁defended
▁Roman
▁therapy
▁wage
70
▁NBA
▁appearances
▁Pen
▁bags
▁detention
▁Cooper
our
▁engine
▁Gordon
▁Minnesota
▁beer
▁personnel
▁governments
▁conversations
▁survivors
▁headquarters
ab
▁Bra
▁races
▁tragedy
▁registered
▁("
ini
▁opponent
▁demanding
▁na
▁awarded
▁passes
some
▁sky
▁concept
▁friendly
rie
▁entertainment
vin
▁crown
▁formed
▁55
▁letters
▁Rights
ile
▁innings
ual
▁clinical
▁beaten
▁executives
▁pictured
▁chaos
▁representative
▁Dallas
▁Russians
▁manner
▁comfort
▁contracts
▁sets
▁Emma
▁smile
▁addressed
▁20-
▁m
ins
▁moon
▁Fa
▁150
▁length
▁kicked
▁meanwhile
▁solar
▁joke
▁neighborhood
▁conspiracy
▁$
▁Antonio
▁Administration
▁drawing
▁disappointed
▁thinks
▁links
▁afraid
▁Pi
▁iPhone
▁nomination
▁Care
▁helicopter
▁Take
▁firing
▁map
▁Birmingham
known
▁Egypt
▁fail
▁Atlantic
▁imports
▁Anna
▁embassy
▁Alabama
▁Colorado
▁cook
▁walls
lor
▁landing
▁thick
▁Leader
▁concert
tle
▁mu
▁speculation
▁spy
▁sa
▁checks
▁breakfast
▁tools
▁collect
▁sensitive
▁establish
▁Thompson
▁proper
▁slowly
▁resident
▁racial
▁recover
▁rarely
▁Such
▁Kansas
▁ease
▁Harvey
▁complained
▁Kyle
▁Gov
▁answers
▁Toronto
▁recording
▁Ni
▁county
▁Par
▁ads
ther
▁crude
▁Education
▁winners
▁cup
▁championship
winning
▁Mars
▁narrative
▁celebrity
chi
▁hired
▁extend
▁salt
▁attempting
▁begun
▁AFP
▁Next
▁emails
▁hide
▁Each
▁personally
▁Max
tre
▁400
▁strange
▁gains
fo
▁horror
▁exist
▁encounter
▁function
▁initiative
▁permission
▁tradition
▁Gen
▁Vice
▁Ku
▁approached
▁prosecution
▁narrow
made
▁resulted
▁forms
▁phones
ud
▁Network
▁medicine
▁awareness
med
▁crazy
▁pot
14
▁necessarily
▁Science
▁37
▁trains
▁diversity
▁handling
▁controlled
▁Charlie
▁announce
▁Maryland
▁LA
▁describes
▁wing
▁recognition
▁recovered
▁OK
▁civilians
▁30-
▁mentioned
▁Maybe
▁investigated
cy
▁fled
▁belief
▁mainly
▁engage
▁headlines
▁update
▁Food
▁Financial
▁waves
▁chest
▁Cabinet
▁Fund
▁Tri
▁file
▁Others
▁Kardashian
▁racing
▁predicted
▁scores
▁Pittsburgh
▁operate
▁requests
▁prince
▁repeated
Q
▁realised
▁limits
▁complicated
▁parking
▁landed
▁Mon
ib
▁r
▁attending
▁Clark
▁exposure
▁NASA
▁fault
▁coat
nce
▁assessment
▁representing
profile
▁realise
▁Dave
▁equivalent
▁tool
▁Robinson
▁Ba
▁Kremlin
▁switch
▁Ge
▁interior
▁noise
▁Nov
▁49
ions
▁adopted
▁shocking
art
▁imposed
▁rocket
q
▁producers
▁joy
▁venture
▁organizations
▁creation
▁Has
▁sand
▁Mayor
▁differences
▁38
▁Jerusalem
All
▁ISIS
▁Ray
▁Special
▁killer
▁venue
▁explanation
▁perfectly
▁ar
▁Researchers
pp
ell
▁method
▁champions
▁crashed
▁thoughts
ane
▁urban
▁terrorism
▁Capital
▁parliamentary
▁savings
▁Season
▁scientific
▁bedroom
▁locked
ations
bu
mate
▁pursue
fe
▁seemingly
▁polls
▁throwing
▁odds
▁Warren
▁senator
▁historical
://
▁nose
▁badly
▁edition
ified
▁Perth
▁2019.
▁guess
24
▁recommended
▁legacy
mann
▁targeting
▁convinced
len
▁loose
▁remarkable
▁clock
▁del
▁belt
▁End
row
▁fatal
12
ky
▁soul
▁salary
▁eggs
room
▁nervous
▁Project
▁Music
▁Dutch
MeToo
▁iconic
▁Che
▁Collins
▁homeless
▁Bannon
▁Intelligence
▁Sheriff
water
▁Dis
▁brothers
▁denies
▁express
▁cheap
▁mini
▁parade
▁Rome
▁ambulance
je
▁missiles
▁rushed
ide
mm
▁retailers
▁surge
At
▁metres
▁puts
▁broader
▁memories
▁interviews
▁reducing
▁improving
▁foundation
▁feelings
▁hosted
▁teen
▁uncertainty
▁climb
▁lights
▁seventh
▁Capitol
▁tip
▁aims
▁hospitals
▁Wa
▁alliance
▁Gra
▁Organization
hy
▁Ju
ren
▁infection
▁contained
▁fundamental
▁Jessica
▁electricity
▁falls
▁Baker
▁Fair
fl
▁admits
▁successfully
▁tone
▁Seattle
▁exports
▁Grant
net
ria
These
▁stance
▁factory
▁Which
▁settled
▁relatives
▁Ocean
▁pub
▁somewhere
▁surprising
▁racism
▁viral
-20
you
▁wounded
▁Norway
▁cyber
▁Look
▁Aaron
▁taught
▁covering
▁Castle
▁Read
▁witnesses
▁promises
▁McDonald
▁swimming
▁weak
▁alarm
▁earth
▁literally
ski
▁partly
▁household
▁posting
▁devastating
▁relevant
▁regulation
vis
ability
▁Sanchez
▁moral
▁fence
▁everywhere
▁courts
▁Kushner
▁12-
▁passion
▁discrimination
▁blonde
▁Work
▁$8
▁Dar
▁encouraging
▁anybody
▁longtime
▁abandoned
▁advised
▁normally
▁Wi
▁except
mb
▁Price
▁sustained
▁attract
list
▁constantly
▁cancelled
iv
▁gathering
▁delayed
▁teaching
▁Later
▁virus
ay
bb
▁scrutiny
▁surveillance
▁warrant
▁seized
▁SNP
gate
▁Call
▁Kingdom
▁forest
rate
▁recognise
▁Pentagon
▁photographs
▁upper
▁consistent
▁blind
▁theatre
▁chat
▁discovery
▁auto
▁hidden
▁manufacturing
gue
▁facts
▁procedure
Oh
▁compensation
▁constant
▁emerging
▁demanded
▁cheese
▁Woman
▁rough
▁hardly
▁branch
▁Col
▁Eagles
▁Ti
▁membership
▁praise
▁sleeping
▁performances
▁progressive
▁category
set
▁consent
▁indicated
▁collapsed
▁viewed
▁keeps
▁streak
▁dying
▁pattern
▁basketball
▁Ronaldo
▁Field
election
▁breach
▁fighters
▁Mohammed
▁latter
▁Did
▁2007
▁teenage
▁Murphy
People
▁Cor
▁revealing
25
▁pose
▁shelter
▁Film
▁Nor
▁academic
▁chef
▁Salisbury
▁waters
▁elderly
▁Hawaii
▁commit
ient
worth
rn
▁workplace
ada
▁error
Do
ob
▁Mattis
▁liked
▁Netanyahu
▁Telegraph
ade
▁tourist
▁label
▁introduce
▁contribute
▁appearing
▁Any
▁Eve
▁Kane
▁st
▁strategic
▁command
ium
▁secured
▁testimony
▁deny
▁menu
▁Jimmy
▁euros
Star
▁Parker
▁billionaire
▁hunt
▁trapped
▁Rod
▁Diego
▁handful
▁rush
▁pages
▁impose
▁welfare
▁nominee
▁rapidly
▁regions
▁deserve
▁banking
▁Oxford
▁expects
▁2012,
▁humanitarian
19
▁filming
▁communication
▁Aberdeen
▁supplies
▁arguing
▁politician
▁Nine
▁Euro
▁delays
▁Analytica
▁presenter
27
wn
▁Ch
▁Award
▁frustration
cent
▁resign
tter
▁Oct
▁cleared
▁rely
▁wages
▁Authorities
▁networks
▁toxic
▁DC
De
▁suspects
▁Ashley
▁refugee
Trump
▁Indeed
▁forever
▁Carter
▁Seven
▁Mal
▁highlighted
ens
▁remote
▁mistakes
▁Za
▁anyway
ily
▁interviewed
▁Gu
▁Cal
▁Rio
▁disruption
▁laugh
▁useful
state
box
▁trigger
▁apps
ator
two
▁units
▁crack
▁Detroit
▁2006
▁ballot
▁imp
▁Cre
▁pleased
▁illegally
▁qui
▁der
▁bike
▁backlash
▁warnings
▁24-
▁romantic
▁explore
▁promising
▁addiction
▁Right
▁settle
▁celebration
▁cloud
▁daughters
▁conviction
▁ei
▁listening
▁insists
▁windows
ari
▁15-
cho
▁resistance
▁moderate
hal
▁fishing
▁artificial
▁separated
▁managers
▁Luke
▁Cha
▁Austin
▁1960
▁Del
ella
▁signal
▁carefully
▁shake
▁Roberts
▁petition
▁18-
▁intervention
17
▁singing
▁72
▁rescued
▁fixed
▁stages
▁protecting
▁migrant
▁attracted
season
▁murdered
▁extension
▁paint
▁Han
▁Vietnam
▁associate
▁typical
▁stations
▁likes
▁prefer
▁Mi
▁nurse
▁classes
▁requirements
▁Mitchell
▁capture
▁sits
▁rid
▁Civil
uff
▁spell
▁stabbed
▁Make
▁Labor
▁asks
▁loans
▁representatives
win
▁photograph
▁Anne
▁Joshua
▁outfit
wan
▁breaks
▁legend
▁3-
gg
▁forcing
▁solo
▁titles
▁goalkeeper
▁labour
wi
▁cooking
▁pack
▁lovely
▁Jane
▁blog
nu
▁Camp
cra
▁celebrating
▁campus
▁selected
▁intent
▁Angela
▁valuable
cher
▁occur
▁Management
▁association
▁applications
▁CIA
▁Easter
▁attitude
▁smoking
▁colleague
▁Mor
▁painting
▁solve
▁Brazilian
▁Officials
▁cooperation
▁2013.
-3
▁pulling
▁arriving
▁compromise
▁equally
▁Campbell
▁abused
▁Roger
pi
▁offences
▁Stewart
▁flooding
▁competing
▁democratic
▁shame
▁elements
▁platforms
▁speaker
▁protein
istic
▁divided
▁brutal
form
▁confirmation
▁hell
piece
▁saving
▁fairly
▁healthcare
▁Fe
▁comedian
▁fate
▁Amy
▁king
▁surrounded
▁£6
▁Was
▁amounts
▁Market
▁succeed
▁Greg
▁rapper
▁grateful
▁fa
▁romance
▁hanging
▁soil
▁sporting
book
▁Ball
▁object
▁Palestinians
▁coaches
▁Greek
tal
▁conclusion
▁intention
des
▁assist
▁42
▁packed
▁knocked
▁PA
▁breath
▁Va
▁tracks
▁Shi
▁monitoring
▁58
▁Barr
▁ally
with
▁guidance
▁fiscal
▁basically
wy
,""
ken
▁Action
▁Parkland
sch
sion
▁essentially
▁enormous
are
▁Oklahoma
▁solutions
▁reforms
▁authors
▁anymore
▁bold
▁lab
▁experiment
▁extensive
▁mess
▁McCain
▁substance
▁politically
▁bacteria
▁birds
▁quoted
▁employers
▁39
top
▁monitor
▁grey
▁Yorkshire
ara
ez
▁Tokyo
▁Greece
▁burning
▁interference
▁Sometimes
▁sudden
▁Mother
▁pride
▁exact
▁organisations
▁scared
az
▁height
▁streaming
▁diabetes
▁relative
▁smell
▁Emmanuel
▁Taliban
▁guarantee
▁stomach
ming
▁57
▁Florence
▁Dow
▁stressed
▁Er
▁explosion
▁Watson
ado
▁ce
▁inches
▁proof
▁Pope
▁41
▁finger
▁43
▁highlight
og
▁Es
▁Affairs
▁Anti
ola
ration
▁Whether
▁Erdogan
ura
▁Nelson
▁tap
▁describing
mph
▁strip
▁Everton
▁principal
▁Wright
▁ethnic
▁Deputy
▁ni
▁Ab
▁cruise
▁Afghan
▁craft
lee
▁Tennessee
▁premiere
▁spin
▁Border
▁fighter
hr
▁bathroom
▁physically
▁tank
▁broadcaster
▁shareholders
▁duties
▁embrace
▁grandmother
▁offices
▁burden
▁oldest
▁blaze
▁opens
▁Hart
▁44
▁survival
▁midterm
▁unprecedented
▁script
▁Jews
▁somehow
dd
▁31,
▁Hughes
▁scenario
▁Danny
pan
sha
▁Si
▁watchdog
▁golden
▁damaging
▁dominated
▁£7
▁poisoning
burn
▁bi
ok
▁rating
▁vowed
▁drone
▁ear
▁egg
▁referee
▁Windsor
▁undermine
▁pledged
▁Rachel
▁Emily
finals
▁universities
▁Authority
▁64
▁ankle
▁somewhat
▁Kent
▁cake
night
▁bump
will
▁industries
ich
▁grant
▁wanting
▁Policy
▁Bu
▁Guard
that
▁recall
▁Pan
elle
▁Puerto
▁Belfast
▁2,000
cur
▁grass
▁studied
▁taxi
▁Assad
part
▁Liberal
▁56
▁voices
▁hall
▁recognize
scale
pt
▁Yo
▁constitutional
▁screening
▁Oliver
▁occasions
11
▁choices
▁apology
▁Protection
▁Liam
▁wood
▁aide
▁Barbara
org
▁Executive
▁boots
▁Sal
▁rebel
ston
▁Mae
▁innovation
ale
▁thin
▁luck
▁Rugby
▁Fla
▁briefing
▁suspicion
bre
▁micro
deal
▁tens
▁hang
▁tired
▁resolve
▁papers
▁Guardiola
▁heels
▁senators
▁momentum
▁deployed
▁licence
▁guidelines
▁66
13
▁Messi
ano
▁visits
▁Chancellor
▁photographer
▁duo
▁acid
▁Susan
dale
cal
▁Bristol
▁modest
▁Arena
▁web
▁ta
▁25-
▁medication
▁nominated
▁finishing
▁Bruce
▁citizenship
▁thus
sk
od
▁researcher
▁£8
▁letting
SA
▁punishment
▁eighth
▁dates
▁Scientists
▁See
▁comparison
▁ho
▁outlets
▁engineering
▁dialogue
▁teeth
▁attractive
▁filing
har
▁supermarket
▁investments
▁29,
tan
▁trillion
uch
▁Rodgers
▁immune
▁picking
▁outstanding
▁suspension
▁painful
PA
maker
▁approximately
▁mortgage
▁Massachusetts
▁wheel
zo
▁veterans
dic
▁affordable
▁soccer
▁maker
.""
▁hopefully
die
▁makeup
▁mystery
ec
▁est
▁indictment
▁admit
ita
▁meals
▁resulting
One
▁lifted
▁delighted
▁proven
▁citizen
▁10,000
▁flood
rich
▁searching
▁Costa
▁Salman
▁$9
▁Brady
▁impression
▁thousand
▁outrage
▁Cu
▁unveiled
▁battery
▁Series
▁ranks
▁28,
▁Lawrence
▁producing
ag
▁vocal
▁Jacob
▁lifetime
▁pupils
▁regulatory
▁promoting
▁Howard
▁Boy
▁burst
mile
▁ownership
▁knock
▁appreciate
▁flew
▁machines
▁readers
▁CCTV
▁rhetoric
▁establishment
▁fame
▁ma
▁concrete
▁Seoul
▁proportion
owned
eg
▁regardless
▁surely
▁Book
▁Min
she
▁legally
▁Pruitt
▁disabled
cap
▁residence
▁sons
▁column
▁para
east
▁Marine
▁Latin
▁Ty
hood
▁Without
▁tape
▁Major
▁involves
▁penalties
▁tall
▁signature
▁76
gle
▁accompanied
fully
▁diverse
bra
sex
▁hire
▁wealthy
▁tips
▁contains
founder
▁Milan
▁ha
▁63
▁comeback
▁generations
▁pound
ical
▁Ste
▁assaulted
▁crossed
▁verdict
▁Ash
▁rapid
▁Cat
▁announcing
▁Spurs
ons
▁Economic
▁impressed
under
▁$10
▁Je
▁volunteers
▁Barry
▁k
▁campaigns
▁Swansea
▁visible
);
▁Yu
▁urging
▁scientist
century
bed
▁59
▁repeat
▁Davies
▁Margaret
▁diplomats
▁unemployment
▁slammed
fire
▁junior
▁Saint
▁discover
▁popularity
Brexit
▁delivering
▁Blair
▁defeated
▁reduction
▁trick
▁Brighton
▁cable
▁Den
▁friendship
val
▁op
▁expression
▁ignored
▁funded
ED
▁2011,
▁equity
▁Bur
▁mainstream
▁Billy
▁odd
▁participate
tri
▁slip
▁monthly
▁weekly
▁entrance
▁warming
▁holidays
▁register
▁briefly
tel
backed
▁cry
▁sur
▁Netherlands
▁maintained
there
▁equality
cut
▁frequent
▁collaboration
▁tourism
▁jeans
Ma
▁plate
▁Warriors
▁Conference
▁bone
▁retain
Co
▁promotion
▁tragic
▁medium
▁deemed
▁buried
▁ITV
▁Karl
ON
ving
▁foods
▁retailer
▁collision
▁Patriots
bound
▁teenagers
▁Everyone
▁ignore
▁pointing
▁outbreak
▁silent
▁wedi
▁burn
▁Nassar
▁Money
EN
▁caravan
▁respectively
▁gown
▁ensemble
▁Bureau
▁contribution
▁storage
▁Airlines
▁genuine
▁Marc
▁copy
▁Corp
iz
▁dancing
▁tear
tain
▁Brett
▁orange
▁pocket
▁electronic
▁nationwide
▁celebrities
ye
▁Pelosi
▁religion
▁serves
uring
▁inspiration
nan
▁baseball
▁Harvard
▁suspicious
▁ranked
▁innocent
▁critic
▁62
▁Larry
▁destination
▁ambitious
▁autumn
▁unexpected
▁satellite
▁trips
▁Bon
▁Porter
▁Perry
▁flowers
▁Roy
▁dust
▁rear
▁reverse
▁unlike
▁n
▁triggered
▁longest
▁pen
ku
new
▁Avenue
▁diseases
▁25,
▁methods
▁feared
pur
▁generate
▁investor
▁studying
▁Indonesia
▁2018:
▁improvement
was
▁Val
▁bloc
▁bread
28
▁Lane
tion
▁substantial
▁matching
▁contemporary
▁26,
▁heritage
▁Nazi
▁crying
▁procedures
▁aides
▁brave
▁Edward
▁27,
-5
▁lessons
▁organised
▁negotiate
▁Around
▁careful
world
▁coaching
▁estimate
Le
▁Colombia
▁EPA
▁Turnbull
▁68
ending
▁theme
ious
▁rolled
▁Reserve
▁24,
▁Thailand
left
▁Portugal
▁Ukrainian
▁consumption
key
▁consideration
▁inner
▁walks
▁bio
ants
▁accommodation
▁leather
▁Medicine
▁Commissioner
▁timing
▁revolution
▁connect
▁Flynn
▁hopeful
▁unfair
▁youngest
▁desk
▁gather
▁im
▁bound
▁cheaper
▁Tillerson
▁sentiment
▁transgender
▁assists
▁frustrated
▁bottles
▁closest
-10
▁strain
▁Place
▁em
▁warns
▁dropping
▁dies
fu
▁une
▁Development
▁travelled
▁commander
▁Sussex
▁bipartisan
▁afterwards
▁requested
▁proceedings
▁Missouri
▁rolling
▁trauma
▁ingredients
▁mothers
▁collective
29
ening
▁Brad
wr
▁30,
▁Son
ps
▁merely
▁Karen
▁Leave
▁prop
ification
▁ordinary
▁Myanmar
▁gene
▁exclusive
▁71
▁accusing
49
▁challenged
▁barrel
▁objects
▁Ber
▁loud
La
▁cope
▁seed
Me
range
▁reasonable
▁iron
▁circle
▁shed
▁touched
▁CNBC
▁Wimbledon
who
▁involve
▁AI
▁Had
100
▁2-1
▁gear
▁Ya
cre
▁Columbia
▁Kurdish
▁containing
▁Utah
▁Cold
▁overcome
▁advocates
▁stream
▁Gareth
▁highlights
▁ultimate
▁carries
▁w
▁Given
▁weird
▁twist
▁bronze
▁technologies
ese
▁dining
▁gonna
▁7,
▁regret
▁predict
▁chronic
▁negotiating
▁Mu
▁Age
▁gut
bel
▁Play
mates
18
lon
▁mode
▁strict
▁trailer
▁Venezuela
plo
▁stability
▁swing
▁46
▁smooth
IN
▁Jesus
▁opioid
▁Chairman
▁2010,
▁Sta
▁disappointing
▁offence
▁stroke
▁Jake
▁realize
tur
▁focusing
▁diagnosis
-4
▁overhaul
▁fires
good
▁Point
ith
▁Secret
▁Katie
▁Gulf
▁Baltimore
▁rounds
▁Have
▁Ze
▁expanded
▁Ann
▁visa
▁steal
▁acted
▁spotlight
▁comic
▁Southampton
▁1.5
▁halt
ena
▁16-
cker
▁raw
▁statistics
▁rebels
▁destroy
▁blocks
▁voter
▁samples
▁Powell
▁Fo
▁Mad
▁Kentucky
▁Ron
▁opener
▁2012.
ct
▁sustainable
▁orbit
▁observed
RE
tes
▁Simpson
▁treatments
bit
▁raid
▁struggles
▁Sh
▁wildlife
▁assume
▁explosive
▁po
▁joked
▁starring
35
▁decent
▁3,
▁disappeared
▁visual
▁tariff
▁Child
▁select
▁mile
ups
pped
rated
How
▁touchdown
▁recognised
del
▁Girl
▁Off
▁comprehensive
▁inappropriate
▁repair
▁Lauren
▁Bal
▁everyday
▁borders
yl
care
▁gross
▁Franklin
▁ships
▁ensuring
iest
▁dans
▁dubbed
.50
get
▁writers
▁riding
▁discussing
▁Forest
ef
▁segment
▁trail
▁entitled
▁reminder
▁17-
▁hotels
Be
▁wrapped
▁withdraw
▁warn
▁GMT
▁Sur
▁2005
▁bizarre
▁Cox
▁button
ath
▁22,
▁beloved
▁passage
▁hub
▁controls
▁investing
▁integrity
play
07
ox
▁prisoners
65
oz
▁mail
▁Guy
▁McConnell
▁gotten
▁Salah
▁purchased
▁Sept
▁muscle
▁coastal
▁sp
▁61
▁condemned
▁toll
▁1994
▁Denmark
▁dressing
real
▁correspondent
▁defined
▁responding
Ha
▁bowl
ock
ened
▁immigrant
▁commissioner
▁butter
▁landmark
page
ala
▁bod
▁21,
▁earning
▁Way
▁memorial
▁1997
▁panic
▁deeper
▁Virgin
▁practical
▁manufacturers
▁offense
tru
▁Wisconsin
▁naturally
▁treating
▁explaining
looking
▁eligible
▁realized
▁opted
▁launching
▁Iowa
▁volume
▁urgent
▁Transport
▁und
▁Dundee
▁bra
▁é
kg
26
▁providers
pping
▁regulators
▁Tar
party
▁Inter
▁Nixon
▁FILE
▁recommendations
▁Wenger
▁harsh
▁Gun
eh
LA
▁Technology
▁talented
▁removal
ack
▁swept
▁23,
▁questioning
▁shooter
▁topic
▁accurate
▁Model
▁Giants
▁enable
▁safely
▁motor
▁Prof
▁Line
▁remembered
illa
▁Leeds
▁judgment
sized
▁NRA
▁worn
▁Hi
▁intellectual
▁technique
▁ratings
▁Governor
▁horses
▁Microsoft
▁robust
▁liquid
▁towns
su
▁margin
nk
▁HIV
▁Station
▁trials
non
▁Travel
▁Melania
▁vegan
▁Adelaide
▁Light
▁Brand
lock
bedroom
▁risen
09
▁shower
▁isolated
ée
ched
99
▁Defence
▁Keith
▁aftermath
ama
rk
▁85
▁Benjamin
▁raises
▁su
▁MailOnline
▁Kar
▁triumph
▁Dubai
▁Too
▁absolute
▁Dublin
▁diesel
▁Giuliani
friendly
▁fossil
▁donations
▁Muslims
▁privilege
ata
▁Hills
▁dé
▁Robin
▁Nicole
▁bullying
▁Oh
▁Until
▁witnessed
▁element
just
▁Hy
▁violations
▁Cho
which
▁arrives
▁globe
▁sc
▁sy
▁boxes
▁bird
▁Win
lie
▁lake
▁uncomfortable
white
▁Ve
▁covers
▁supporter
▁reads
▁reception
shirt
▁lit
▁Indiana
▁Stra
▁Thai
▁cocaine
▁holes
▁2004
face
och
▁prompting
▁burned
most
▁Ren
▁tag
▁Carl
▁toilet
▁firefighters
▁Pu
ments
▁Actor
▁regard
▁export
▁PHOTO
▁steady
▁Lin
▁aspects
▁fed
Don
▁crackdown
sson
▁euro
▁GP
▁grave
bank
▁restore
▁ninth
▁Foster
billion
▁Kris
▁distribution
▁barriers
▁Stuart
▁slide
▁teach
view
▁existence
▁operator
mit
▁commented
▁invested
▁argues
ill
▁Eddie
45
▁loves
▁acquired
▁19,
▁retire
▁bride
▁legitimate
▁receiver
▁checked
▁principle
▁unacceptable
16
▁Writing
app
▁Ce
ked
▁fields
Mo
und
▁ages
▁dreams
▁assess
▁100,000
din
▁grade
▁spots
▁Clarke
▁dementia
▁Helen
▁Rico
xi
▁Schumer
▁dish
too
▁Bro
▁attached
▁Hearts
▁consultation
▁destruction
▁Cape
▁Fashion
▁continent
▁sentencing
lay
▁2020.
▁ac
▁Storm
▁formally
01
▁Inside
▁divide
▁raped
▁Bor
▁waited
▁playoff
▁Ted
▁Bad
▁Illinois
▁flash
▁Morris
▁Gates
▁violation
author
▁6,
▁Cosby
ult
▁escaped
▁Boeing
mor
▁updated
▁breathing
▁consistently
▁difficulties
▁consultant
▁1998
▁foul
▁employed
▁Nu
▁businessman
▁traveling
▁Story
uck
▁legislative
▁highway
▁Les
▁Conte
▁lo
▁Joyce
▁Country
▁advisers
▁Ban
▁2003
▁Control
32
▁loving
▁couples
▁consulate
▁Turner
▁runway
▁hurricane
▁unions
▁slipped
▁strengthen
▁spaces
▁vaccine
▁Gas
▁phrase
▁openly
away
nie
▁Lions
With
▁Croatia
▁depend
▁Sergei
▁railway
▁processes
▁Report
▁Metropolitan
▁grab
has
▁Carlos
▁boom
▁anonymous
MA
▁differently
▁seal
-2
▁Blake
▁ScienceDaily
▁approve
▁dramatically
▁movements
▁professionals
▁introduction
▁patterns
▁agreements
▁subsequent
▁Bloomberg
▁stopping
vy
▁outdoor
▁Mill
▁2011.
▁Officer
▁residential
▁advocate
▁affects
▁civilian
▁grip
▁directors
▁sauce
▁(1
cing
▁Review
▁depth
tch
▁Taiwan
▁sisters
▁uniform
▁militants
▁Sand
▁Spring
▁sessions
▁250
eb
▁Fi
CA
▁21-
▁graduate
▁notion
▁structures
75
▁seeks
nic
ING
▁Fury
▁laughing
▁definition
lia
tte
▁Qatar
▁Tre
▁69
lar
▁hosting
wide
▁depending
▁Adams
▁Orleans
▁meaningful
ches
▁Nicola
than
▁midnight
▁Cam
ati
▁twin
ters
▁arts
▁Friends
▁Information
▁submitted
▁trainer
qu
ement
▁hike
▁expanding
▁situations
▁tactics
▁2-0
▁reviews
▁McGregor
mal
rin
▁portion
▁Mercedes
▁relation
▁Ki
▁soldier
▁vegetables
▁demonstrated
▁dig
▁reflected
":
▁Summer
▁Bailey
▁suggestion
▁1996
▁sample
▁doubled
▁rebounds
▁disappearance
▁au
▁underway
▁neighbours
mark
▁enemy
▁contributions
▁Tories
▁Em
▁expenses
▁Pyeongchang
▁Southgate
cer
▁Sophie
▁sum
▁Mid
ste
▁eager
▁bombing
▁casual
zer
▁Wells
ju
▁arrangements
▁Ph
▁frozen
▁delegation
▁yield
▁73
▁beneath
▁Char
▁gunman
▁Ser
▁67
▁Plan
▁theft
▁Gi
▁facial
▁motivated
▁pit
cus
▁centres
▁Crime
▁Amendment
▁47
▁tail
▁600
▁Theatre
▁22-
▁bonus
▁lung
ug
▁Cro
▁bitter
▁bosses
aw
▁marine
▁chapter
pin
▁charging
▁asset
▁Election
▁sheet
▁intimate
▁generous
▁Should
▁deportation
▁pleasure
▁Add
▁statue
▁4,
▁rookie
▁excess
▁1999
33
▁Much
elli
▁lengthy
▁promoted
▁invitation
Credit
▁arguments
▁Born
Ro
▁1-0
oo
▁bikini
▁pizza
met
▁naked
▁noting
21
▁Denver
▁awful
▁billions
▁Ci
▁Cur
rous
▁Victorian
▁Villa
▁Garden
▁gig
▁bull
▁Lang
▁portfolio
▁preferred
▁Sara
ight
body
▁52
▁output
▁curb
iness
▁symbol
▁urge
uri
▁Hungary
▁Ferguson
▁athlete
▁Hammond
▁virtual
▁Express
▁electoral
rum
▁nowhere
NA
yo
▁forgotten
▁ne
▁Hunter
▁chase
▁hiding
23
▁audio
▁Norwegian
ks
▁closure
▁inquest
ique
▁magic
▁Tech
▁dealt
▁grabbed
4,000
▁Unlike
▁installed
ova
▁substitute
cm
▁sheriff
cu
▁governing
CC
▁households
▁queen
▁Mount
▁inform
▁Tro
▁versus
▁Celebrity
▁coup
vers
▁lesson
▁flames
vent
▁organized
▁AM
▁pending
▁influential
▁shoulders
mes
▁icon
▁peers
▁boxing
▁Silva
hard
▁wire
On
▁emotions
▁skirt
▁defendant
▁spectacular
▁1950
55
▁Glen
▁Thousands
.99
▁blast
▁51
▁avoided
▁Internet
▁episodes
▁drunk
▁shoppers
▁lock
ction
▁kingdom
▁cancel
▁tower
▁74
▁sing
▁Cancer
▁wound
48
▁engineer
▁Bradley
▁tin
▁pepper
▁Mag
▁14-
▁ESPN
ture
▁Diana
▁Nigeria
▁removing
▁smartphone
▁Morrison
▁bath
▁Spencer
▁Haley
only
▁AT
▁classified
▁Nancy
action
▁breakthrough
ash
act
▁THE
bs
▁virtually
▁tissue
▁Klopp
▁Nation
▁Marco
▁Officers
▁recalls
▁indicate
mic
▁Marvel
▁clinic
▁Walmart
2,000
▁(2
▁tension
9,000
▁propaganda
dia
▁nightmare
ux
▁bunch
▁apologised
▁Downing
▁connections
▁handled
▁Oregon
▁Nearly
▁Ant
▁powder
▁1992
dom
ute
▁feminist
▁description
▁earthquake
▁Tehran
▁anthem
gel
▁plain
▁Sterling
▁comp
▁Juan
▁apologise
▁Gr
▁trends
▁qualified
▁reserve
▁fur
had
▁ch
▁scam
▁stepping
▁Bel
▁Grace
▁reflects
▁glad
▁allegation
▁scrap
▁displayed
▁refusing
▁glimpse
▁Senior
▁expense
▁crowds
zz
▁19-
▁mining
▁experiencing
▁rice
tar
▁painted
▁primarily
▁trophy
▁hunting
ben
▁camps
▁chamber
DA
▁clearance
6,000
Well
34
▁Aug
06
ral
▁Hol
▁drag
▁examine
▁Safety
▁Colin
▁28-
▁Freedom
▁preparation
▁slim
▁implications
▁Does
▁kinds
▁Speaker
▁answered
stein
ridge
LE
▁demonstrate
▁ET
▁mirror
▁achievement
▁editing
▁choosing
▁optimistic
▁teammates
▁owns
▁Ye
▁tune
▁strategist
▁Claire
▁patrol
▁telephone
▁fe
▁ca
▁Stanley
▁Data
▁periods
ld
▁Nathan
▁chip
▁oxygen
ien
ister
▁battling
47
dal
▁Experts
▁podcast
cul
ira
▁CO
▁conventional
▁prevented
▁£9
see
▁Vo
nch
▁reward
▁regulator
▁districts
mas
▁routes
▁pure
▁pants
▁Polish
▁Staff
▁Cuomo
▁Jared
▁th
▁examined
▁Wild
▁relaxed
ei
put
▁fierce
▁branded
▁Oval
▁massacre
▁Austria
IS
▁ultra
▁Wil
ically
▁54
▁psychological
▁climbed
▁traded
▁universal
oli
▁Federer
▁spa
▁1993
▁beaches
7,000
ato
▁obtain
▁Stoke
▁horrific
▁steep
▁Hard
ison
Neill
▁beef
New
▁vessel
▁furniture
▁worries
▁teens
▁transferred
▁bias
▁god
▁recommend
▁Tor
▁arrests
▁$100
▁History
▁Bla
▁Carr
▁institution
▁Istanbul
▁1995
vert
▁Mississippi
▁Saints
▁Come
▁subsequently
hor
▁economist
▁fined
AR
▁motivation
▁16,
▁ridiculous
▁midfield
▁mad
▁universe
ump
▁Almost
▁temporarily
▁crews
▁te
▁posing
▁item
gh
▁gate
▁Community
▁transform
▁booked
▁Cole
▁(3
31
▁Andre
▁pledge
▁generated
ER
now
▁planes
four
▁26-
▁pipeline
▁tale
▁bureau
▁WA
▁Mass
▁devastated
pper
▁tracking
▁23-
▁obesity
nal
▁amendment
bin
▁prospects
▁Small
▁Roma
▁desert
▁rental
▁jokes
▁locks
▁Heart
▁premium
▁Sar
▁Girls
▁leaked
▁Wayne
▁Sol
▁workforce
Lo
▁representation
▁takeover
▁courage
▁Prosecutors
▁18,
3,000
▁grandfather
▁invite
▁concentration
cat
hill
▁tan
▁Tommy
▁($1
▁Again
▁deck
▁hostile
▁neutral
▁77
▁siblings
▁evacuation
▁WASHINGTON
▁Rosenstein
▁affecting
▁Prize
▁Things
▁developers
▁convince
▁Finally
44
Why
▁Emirates
▁Could
▁Mas
▁centers
8,000
▁Bishop
ora
▁Mediterranean
▁outlook
▁Marshall
▁Ruth
▁Rebecca
▁suburb
04
sie
▁Blues
▁Federation
▁rap
▁Oil
▁Islam
▁titled
ifying
ric
ition
sey
▁Czech
three
▁attendance
▁gallery
▁refuse
▁Bennett
▁Pri
▁Kings
▁Drug
host
▁Crystal
▁triple
▁1:
▁Il
▁engaging
gra
▁Broadway
▁acknowledge
▁accepting
▁fortune
▁Albert
▁chi
▁pursuit
▁tougher
▁famously
▁juice
▁Bull
▁Sturgeon
▁touching
▁hiring
▁Scots
▁inspire
03
mail
▁recognized
▁skill
▁porn
▁participation
▁sued
ros
▁Bachelor
▁separation
ona
▁Tra
▁3,000
▁Libya
▁stamp
▁populist
▁Metro
▁supportive
▁renewed
▁techniques
▁Ger
▁ranging
▁Philippines
▁Julie
▁anticipated
▁resume
▁aluminum
▁DACA
While
▁roots
nell
▁Stock
▁polling
▁torture
▁arrangement
▁Reid
▁terrorists
▁hugely
▁overwhelming
▁eu
aire
▁qualify
▁addressing
vor
▁screaming
▁Rohingya
▁GDP
▁improvements
▁worrying
▁execution
▁cleaning
Con
▁privately
eng
▁recovering
held
▁Marcus
dra
▁Stan
wick
▁Plus
IA
▁supports
▁meddling
▁mar
▁Brendan
match
ula
▁2002
▁pile
▁comply
▁lip
95
▁reviewed
oh
▁fastest
▁strongest
▁PC
▁acceptable
▁Phoenix
▁Snow
sic
▁signals
▁react
▁Europa
▁53
▁kiss
▁Abu
▁bitcoin
▁violated
▁Unfortunately
lli
dar
▁tremendous
▁organic
▁celebrations
tas
▁provider
▁Assembly
08
▁regarded
▁Christie
▁attorneys
nny
▁transparency
▁bombs
):
ero
▁2010.
▁evil
▁fever
▁Des
▁cabin
▁Sto
▁humanity
▁Change
▁Egyptian
▁treaty
▁Terry
▁competitors
▁Lucas
▁chic
wo
▁Jamal
▁FIFA
▁outcomes
▁Australians
▁genes
▁Harrison
▁Fred
▁minds
ered
▁charities
▁crop
▁adopt
▁Bird
▁Wing
▁opera
▁bat
▁III
RA
bridge
▁deliberately
▁epidemic
▁perceived
far
ea
▁database
▁passport
▁occasionally
▁Hamas
▁evacuated
▁successor
▁Slam
▁Dun
▁sacked
▁Emergency
▁captioned
cri
ert
▁Silver
▁portrait
▁detect
market
▁Lan
39
▁Ivanka
▁centuries
▁Father
▁11-
▁fabric
▁Fort
lic
▁depends
▁Caribbean
▁denial
▁rises
▁license
▁wooden
▁examples
▁define
wife
post
press
▁guards
▁loyal
▁Shanghai
▁Everything
lly
▁poses
▁DJ
▁Fans
▁balls
▁Commerce
▁Fraser
▁Potter
▁habit
▁excuse
▁Arthur
▁Net
▁Key
suit
▁trio
▁Being
▁steam
▁Com
▁protections
EU
▁maintenance
▁click
▁confused
▁dominant
mel
▁si
▁underground
▁emerge
▁musician
▁underlying
▁indication
zy
▁Christine
▁Room
▁audiences
▁disappointment
▁Davidson
▁barrier
▁Hope
▁Bond
▁peaceful
38
size
▁Pra
▁mice
▁excitement
strong
▁retreat
▁span
▁collusion
85
ST
▁17,
An
rating
▁Whit
▁Lopez
ew
▁tunnel
▁shell
ME
dle
▁vessels
▁desperately
▁custom
▁donated
Ra
▁Bus
▁Rich
bert
▁carrier
▁confusion
▁stops
▁trump
▁economies
▁phenomenon
▁foster
▁judicial
▁sweeping
▁McC
▁Hundreds
▁creates
AN
▁waist
▁criminals
▁deserves
lot
▁giants
Un
▁bo
une
Mar
▁5,000
▁wishes
▁efficient
▁drought
bury
ching
▁Dead
▁Hor
▁wounds
▁origin
ban
ington
Man
▁Stoneman
driving
iff
▁adapt
▁appealing
▁purchases
▁Damascus
▁Low
▁presents
▁implement
▁mae
▁shortage
west
▁27-
▁Hal
▁2001
▁awkward
▁Premiership
▁drones
▁punch
▁dynamic
▁furious
front
▁spare
▁shy
▁debris
amp
ali
36
▁Mur
tat
leg
▁exception
▁Lyon
▁cinema
▁marry
▁Oakland
▁channels
000
▁Cap
▁threaten
▁inequality
▁conceded
ify
aging
kick
lyn
▁Investment
▁sufficient
▁difficulty
▁Wars
▁preserve
▁operated
▁Division
-15
▁preventing
tech
▁insight
els
Ho
02
hin
▁vacation
stop
▁troubled
▁converted
▁Alaska
▁gifts
▁Trans
▁fines
▁Goldman
▁councils
▁trucks
mat
▁120
▁Rather
▁Shaw
▁robot
▁sectors
▁Yankees
▁finale
▁downtown
▁deciding
▁maintaining
▁respected
shot
ydd
▁islands
ole
-19
▁Chuck
▁meets
▁reliable
pc
▁transplant
door
▁Representative
▁800
▁incumbent
▁Interior
quarter
▁secondary
▁Using
BA
▁nonprofit
▁x
av
▁jumping
▁conservation
▁tenure
aki
")
ius
ire
▁determination
▁ranking
▁theater
▁Nevada
▁ERA
▁pilots
▁blend
▁tri
▁suburbs
▁stunt
ml
▁Ward
▁celebrates
▁approaches
▁Exchange
▁formula
▁horrible
▁ambition
▁Dylan
▁MI
▁Phillips
▁snapped
▁fiction
▁terminal
▁Amanda
▁Mer
▁Sox
▁lasted
▁Holocaust
▁78
▁helpful
▁Sheffield
▁Munich
▁operators
take
▁communicate
▁Alzheimer
▁Huawei
ware
▁quietly
▁Soon
▁transformation
▁suppliers
▁Dick
▁declaration
▁invasion
▁Belgian
▁LGBT
▁admitting
▁discount
▁mat
▁actively
▁oppose
▁Constitution
▁yr
▁CA
▁complain
▁Malcolm
cia
▁requiring
▁Alliance
▁Julian
▁sharply
▁Angel
▁Iraqi
▁shark
▁Holland
▁appeals
screen
▁ICE
▁prescription
▁measured
▁Communist
hn
▁transportation
▁stylish
▁guaranteed
▁Edwards
▁purposes
▁passionate
bble
ele
▁bare
▁hockey
▁automatically
▁blanket
▁chemicals
five
▁Dor
▁conservatives
▁Studies
▁dishes
this
▁habits
▁neighbors
▁external
▁medals
▁developments
▁mud
▁sophisticated
uc
▁29-
▁capabilities
▁firearms
▁boats
▁smiling
▁aired
▁inevitable
▁mysterious
▁outing
▁5,
▁1991
▁locals
▁updates
Al
▁listing
▁Hay
▁Lincoln
▁diplomat
▁merger
▁Wembley
▁aspect
▁qualifying
▁Rudd
▁gambling
▁Baby
▁boot
▁Transcript
▁20,
▁kit
▁subjects
▁partisan
▁breakdown
▁opt
▁Amber
▁random
▁$50
vic
▁Wolf
▁Final
▁lap
▁priorities
▁Run
▁nurses
▁kidney
▁transformed
RC
▁touchdowns
▁Anyone
▁rec
▁£10
▁mate
▁Kylie
school
rry
power
37
lla
www
▁testify
ika
▁shouting
▁Reagan
rr
▁leak
▁Todd
▁Malaysia
what
wed
▁duck
▁3-0
▁$20
▁None
▁Mitch
▁considerable
▁exploring
▁overdose
-6
great
▁gr
▁biological
olo
▁alter
▁bears
▁insisting
have
▁fleeing
▁assumed
aged
card
▁McCarthy
▁filling
▁SUV
▁winger
▁Within
▁Gray
▁Masters
▁bubble
▁festive
Bo
▁pad
▁fluid
▁array
kar
▁Juventus
▁Stormy
▁Kenya
▁calendar
▁clever
▁caps
▁Marie
▁hi
▁qu
lines
home
▁boycott
▁1989
▁hailed
▁traveled
▁Luis
▁confrontation
▁Caroline
▁peer
▁disclosure
▁matched
▁Catherine
▁Mis
▁14,
▁betting
▁Rees
Just
▁PR
▁Steele
▁broker
sur
▁95
▁Arctic
▁wa
▁Beckham
any
▁Jenner
▁pressed
▁consensus
▁Century
▁Herald
▁garage
stra
▁cousin
ame
▁Through
▁Additional
▁taxpayers
▁Farm
▁spray
▁chart
▁innovative
▁Dream
▁Ghouta
▁bonds
▁replacing
▁Kanye
▁Cuba
▁Pete
▁caution
▁Mun
▁valued
▁discipline
sign
22
▁Dame
▁ambitions
TA
▁interim
ple
▁hill
▁Mason
▁ju
▁stint
where
▁toddler
▁stem
lle
46
ore
▁tr
▁safer
▁trafficking
▁trousers
▁freezing
col
bal
▁tee
▁relating
yan
▁Ag
▁recipe
IT
▁IT
▁Thank
▁Pep
▁adventure
▁nights
▁Johnny
▁exists
▁library
▁Iceland
▁employer
▁bones
▁stark
▁bust
▁excessive
▁McCabe
▁Rescue
▁airlines
▁accessible
▁Palm
▁mountains
grade
Semitism
▁Olivia
▁2009,
▁stunned
▁Homeland
▁opinions
dor
▁cur
▁shootings
test
▁assured
jan
▁confronted
▁runner
▁DUP
▁thanked
▁Kin
▁logo
▁Future
Mr
ign
▁ob
▁Gal
▁fingers
▁principles
▁Valentine
▁Vincent
▁Tampa
place
▁11,
▁revenues
▁Darren
té
▁layer
▁expertise
media
▁stating
▁graphic
▁formation
▁topped
▁Congressional
▁Lamb
▁rage
▁populations
▁mentor
▁pursuing
▁Golf
rid
▁www
nn
▁hashtag
▁Stephanie
▁2019,
$
After
▁Kay
▁Weather
▁gradually
▁Mountain
▁conducting
▁websites
imp
▁Fu
▁import
eo
▁Late
▁Rodriguez
▁anonymity
▁1968
gli
▁ré
▁happiness
▁reminded
▁Ly
start
▁Op
▁implemented
hit
▁acquisition
▁whenever
▁Hand
boy
▁Garcia
▁sheer
▁rocks
ets
▁reject
▁kicking
▁View
stro
equ
▁hint
▁disagree
▁harmful
▁deserved
▁weighed
▁firmly
▁FDA
▁pin
▁pe
▁selfie
▁Essex
▁Chan
▁Pop
▁counterparts
▁lobby
▁fleet
▁whilst
▁13-
▁Ac
▁spreading
▁tender
▁sorts
▁deposit
▁renewable
▁j
▁hung
▁navy
▁marking
▁glamorous
fra
▁notable
AS
Not
mond
▁staged
▁convention
gor
standing
▁Paradise
▁infected
▁circuit
▁Lucy
▁crisp
▁Dakota
ense
▁Agreement
▁Heather
▁meters
qua
▁12,
▁neighbour
▁chancellor
▁wrongdoing
chen
▁Vote
▁blocking
▁flooded
▁trusted
▁Ever
▁Vatican
▁Conservatives
▁buses
▁stupid
hl
▁Serena
▁Sri
▁Shu
ES
kes
▁Talk
▁radar
▁NI
▁demonstration
ain
▁offshore
being
▁nod
▁Lou
▁Consumer
▁mentally
▁flip
▁Neither
▁cliff
▁Peru
▁presentation
▁accord
▁SA
eth
▁Budget
▁Heat
▁flags
▁cycling
▁(4
▁BT
iti
▁gesture
▁Louise
▁Lakers
▁wash
▁approaching
thirds
Some
▁Looking
▁chips
ram
▁predecessor
▁publish
▁Rail
▁cult
▁Leon
best
▁Tiger
▁Main
▁emotion
▁Th
self
▁Ltd
▁similarly
▁sequence
▁toys
▁cruel
▁Penn
pl
▁Panther
▁inning
rat
▁Calif
▁Julia
nick
▁versions
▁booking
▁hearts
▁fantasy
▁Swift
▁parks
▁Mont
▁tu
▁Fer
show
▁swim
▁commonly
Let
▁2022
▁Jackie
▁volcano
▁Jen
▁jets
▁82
77
▁dip
ged
fin
bri
▁Hampshire
▁Swan
▁resolved
▁Environmental
▁aisle
▁willingness
▁calories
▁ACT
▁acres
▁concerning
▁traditionally
▁roster
▁Made
▁aboard
controlled
▁anxious
▁stole
▁screens
track
▁Tyler
▁elaborate
▁pal
▁examination
▁demonstrations
▁dragged
▁infections
▁Tax
hold
▁campaigners
▁globally
▁reign
▁Critics
▁Taking
Pa
▁suite
▁Hibs
▁enemies
▁lined
▁confessed
▁donors
rick
▁UFC
hole
▁salad
▁volunteer
▁constitution
fish
▁Wallace
▁pays
▁Members
▁Doug
▁Bri
cru
▁Mat
▁releasing
▁40-
▁87
88
▁(£1
▁glasses
▁confront
▁h
wen
▁format
▁memoir
▁Catalan
▁Nature
▁Wolff
tier
▁fails
▁Hugh
▁fi
▁cooperate
IC
▁Nigel
active
▁restored
▁Knight
mis
▁colours
▁Never
EC
▁Samuel
▁Deal
▁tackling
▁Forum
▁autonomous
▁corn
▁accountable
member
▁uncertain
ré
roll
▁Think
▁Fra
▁shore
Ba
breaking
lip
▁Shares
▁spark
▁finals
▁Judiciary
▁chains
▁Say
▁altogether
rant
▁bite
▁Forces
▁preliminary
▁QC
▁log
pu
▁AFL
▁annually
▁oversight
▁campaigning
mun
makers
▁stranger
used
▁reluctant
lit
▁advocacy
▁Butler
▁scope
▁tweeting
▁dirty
▁Brent
ui
▁rumours
▁Bou
▁spirits
onic
▁intensity
▁shine
▁suits
rt
▁abandon
▁Mirror
▁Tan
▁Related
▁disclose
▁Online
▁mansion
handed
▁Reed
vel
inch
AC
▁ro
ering
▁fights
▁Hot
▁resist
▁Assange
▁sole
▁Banks
▁va
▁81
▁petrol
▁15,
▁operates
▁dominate
▁mutual
CH
▁freeze
▁stabbing
▁checking
▁Would
▁counterpart
▁transactions
yer
▁Curry
▁filter
▁Gre
▁eliminate
▁Aussie
▁infamous
sel
▁ripped
cht
▁endured
▁insist
▁commissioned
▁surprisingly
▁starred
▁sentences
▁bulk
▁8,
ded
coming
▁Immigration
▁Peace
▁pressing
▁mask
▁notorious
▁arranged
inter
▁infant
▁Derby
word
stream
▁pi
▁provision
▁Riyadh
eu
▁arena
▁Au
▁repeal
▁Captain
▁barrels
ces
▁categories
▁Investigators
▁fixture
table
▁Ice
▁1988
cast
▁buyer
▁notably
gal
▁throat
▁NEW
▁tide
▁Orlando
▁tick
▁premier
how
plus
▁outlet
▁minimal
avi
▁wars
shaw
sure
▁heated
las
▁recruit
▁embraced
▁turnover
▁disturbing
▁makers
▁disclosed
▁enforce
▁Brom
▁forum
▁Dominic
ori
▁laughed
▁Chase
▁tonnes
▁Race
▁Watford
▁neighbourhood
▁2.5
▁academy
66
▁Connecticut
▁Lib
▁mandate
dan
uf
▁Set
▁rifle
▁2008,
income
▁strategies
▁sells
▁slight
▁brush
lier
pon
▁Ay
▁Trudeau
▁trap
ome
▁Against
▁stealing
eva
rri
▁Zi
▁charm
▁advisor
▁Alice
cor
▁heavyweight
▁(6
▁engines
▁Twenty
gger
▁viewing
▁Motor
▁addresses
▁understands
bat
ose
▁Owen
ough
▁Peninsula
▁Andrea
AFP
▁wrap
ject
▁organ
minded
▁launches
▁Orange
▁solidarity
iya
▁Ferrari
▁okay
41
chy
▁sh
vol
▁exercises
▁App
▁uncle
▁requirement
▁alien
▁nationalist
▁Disease
▁devoted
▁seeds
▁Auto
▁seekers
▁zoo
sti
▁1986
▁commitments
▁Pin
▁liver
▁Pass
▁credibility
▁tobacco
second
▁newspapers
ological
▁terrifying
▁victories
▁Jerry
▁mechanism
▁benchmark
▁HBO
▁computers
▁nightclub
watch
▁storms
▁Greater
▁unnecessary
▁Islands
▁den
▁decrease
▁assembly
▁revelations
▁Ana
▁superstar
▁Leonard
step
▁Side
▁underneath
▁lasting
▁Rev
▁tropical
▁pa
▁Midlands
-7
1,000
▁climbing
▁audit
▁Sergio
▁Sim
ean
▁sweep
▁donor
▁Kensington
gn
aries
▁educational
▁Left
person
▁justify
▁framework
▁deleted
▁canceled
▁boasts
▁Lloyd
▁registration
▁cryptocurrency
rian
about
▁Bournemouth
▁lottery
▁Oscars
▁hardest
▁Cymru
▁artistic
hen
▁Workers
▁smashed
try
▁perception
▁spectrum
▁Standard
▁disability
▁compliance
▁Highway
43
▁paired
▁Short
PS
▁sacrifice
▁eruption
▁Joel
▁Holly
▁refund
▁inmates
▁Buy
▁Arts
▁Sub
ory
▁shipping
▁Mick
▁essay
▁editorial
▁ethical
▁parked
▁Unit
▁responses
▁arch
▁leverage
denuclearization
Di
▁avoiding
EA
look
▁exhibit
▁Christ
▁Rams
▁Starbucks
rel
▁severely
▁Gor
AM
▁hammer
▁remind
▁Cru
▁wondering
▁dated
▁suspend
▁transparent
oni
▁errors
▁reply
▁Bun
Black
▁Smart
▁operational
▁lineup
▁precisely
▁arguably
▁syndrome
▁Wilder
▁pie
▁Band
▁Burnley
▁collecting
Fi
▁Henderson
▁Samantha
▁coordinator
▁twins
▁appealed
▁attacker
lum
▁refer
68
▁Duncan
▁subtle
50,000
▁searched
▁guitar
▁teamed
▁grid
ators
▁gaining
▁drives
▁Carillion
▁joins
nar
▁Shane
rio
▁affiliate
▁Environment
▁scare
▁initiatives
▁flee
▁Early
▁monster
▁showcase
▁Chloe
▁cr
▁rushing
tie
▁securing
▁hug
fect
▁nursing
▁Ronald
▁Jeffrey
significant
▁forecasts
degree
▁mild
▁Michel
▁delight
gri
▁stripped
▁loyalty
▁bullet
Pro
▁Robbie
▁92
▁compare
▁protective
▁elegant
▁Pogba
▁placing
▁Silicon
▁Broad
▁13,
zen
▁finances
▁bow
▁packages
▁Gill
tric
▁wheelchair
▁feeding
▁offenders
▁hilarious
ais
▁Stars
▁patch
▁Bet
Yes
▁Inspector
▁battles
▁restricted
Now
▁undergo
wear
band
▁workout
▁Dodgers
▁Customs
▁Mohamed
▁Ivan
-0
▁Gro
▁grim
▁Raiders
▁Bitcoin
▁Bangladesh
▁Alexis
▁newborn
▁cats
▁33-
▁Death
Go
▁uncovered
▁Between
▁lips
▁processing
▁Song
▁thrilled
▁GM
▁folks
▁forensic
▁jam
SE
zu
▁cafe
▁endless
▁branches
▁hostage
▁grief
its
▁Sy
▁architecture
▁Program
59
42
lt
▁precious
▁Tesco
they
▁united
▁clashes
▁paintings
▁overtime
▁snake
▁Opera
▁satisfied
▁Delta
▁Norman
▁yoga
▁bro
▁Entertainment
court
str
▁beliefs
▁unfortunately
turn
▁packaging
▁unnamed
hol
▁AS
▁lease
▁suggestions
pet
▁counties
▁admission
Po
▁Students
▁lane
▁agriculture
▁resource
▁Franco
▁bloody
ution
itz
▁accounting
▁cha
▁delicate
▁draws
▁robbery
▁crystal
▁mere
▁heroes
▁Building
▁spike
▁20,000
▁yard
▁rallies
funded
▁Drake
▁tongue
ude
lis
▁agricultural
▁fascinating
▁Samsung
▁crashes
▁Ros
▁wrist
▁Jinping
▁AR
▁Representatives
▁sweat
▁electrical
▁boundaries
▁erupted
▁applying
▁permit
▁slot
▁Abe
▁cheer
▁lean
▁objective
▁designs
▁Ellis
▁pardon
acy
▁footballer
gun
▁Hannah
▁engineers
HO
▁84
▁publishing
▁Globe
AL
▁ballistic
▁twenty
oon
▁MS
▁ratio
ami
▁embarrassing
▁developer
▁reaches
rah
mie
▁ears
▁frustrating
▁partially
▁scary
▁hungry
▁Elliott
▁olive
▁mandatory
▁programmes
even
▁dangers
▁Area
▁Devon
eur
▁hearings
gin
▁trash
▁playoffs
▁CDC
▁clarity
▁rein
lam
▁fitting
▁credible
▁$15
▁casting
fan
▁Manager
▁Magic
▁von
▁Snapchat
▁accent
▁neighbor
bad
lio
▁installation
aj
▁dairy
▁persuade
vid
▁soap
▁Wang
▁superb
▁bout
▁Martinez
▁Madison
ians
▁Bobby
▁Less
▁cure
▁palace
▁theories
▁Nadal
▁murders
▁Medicare
wall
▁plunged
▁Jae
▁Fri
▁shout
duc
▁Rogers
▁components
▁spiritual
▁unhappy
▁Battle
running
▁empire
open
▁tube
▁nude
▁bang
▁tons
▁switched
▁Village
▁$200
▁Aid
▁83
▁laptop
wer
▁pole
▁loo
▁ethics
▁enthusiasm
▁donate
base
▁testified
▁Heathrow
clu
matic
▁sends
▁genre
▁myth
▁Grenfell
▁Nothing
▁slam
▁Eight
▁Gil
67
▁chairs
▁lavish
▁beside
▁99
▁Corporation
▁Edmund
log
▁Milwaukee
▁Outside
eau
▁Zo
▁hedge
▁9,
▁aiming
▁abusive
▁nu
▁costly
▁prevention
▁curious
▁Finance
mission
ela
▁delicious
Vi
▁Shah
▁tent
▁mega
China
▁indigenous
▁Emmy
▁threatens
▁Tigers
▁exclusively
race
mont
▁peninsula
lus
▁quote
▁epic
▁profession
ica
▁Bru
▁instructions
▁speakers
▁misleading
▁classroom
▁Trafford
▁exceptional
▁tense
eller
▁cents
▁greeted
▁diamond
▁focuses
ggy
98
▁architect
▁robots
▁McG
▁agrees
▁Dennis
▁creator
▁woke
▁hyper
▁Fairfax
▁evolution
▁Williamson
▁dive
▁hook
love
force
▁Put
▁shouted
▁imported
▁thigh
▁$12
69
▁33,
▁Moss
▁Chile
▁milestone
▁sooner
▁km
▁projected
threatening
▁lifting
verse
poli
▁bug
gent
▁departments
/10
▁Glenn
rus
▁Doctors
risk
▁shoe
▁corrupt
▁Jenkins
▁Flight
▁whistle
▁drops
▁adaptation
▁threshold
▁Brandon
▁optimism
▁Fear
▁recount
89
▁Fisher
een
▁911
56
▁Whatever
▁cartoon
▁diplomacy
▁conscious
▁lemon
▁Neymar
▁Carson
▁importantly
▁basket
▁bun
▁Dad
▁decisive
paid
▁knot
▁Tam
lift
▁ID
▁BMW
▁mall
▁brunette
57
pect
ente
▁Mall
▁Ram
▁jaw
▁grace
▁lyrics
▁airports
▁genuinely
iel
▁Vogue
dding
▁zones
▁Pay
ante
tation
05
▁Mum
▁damages
▁welcoming
▁kilometres
▁Stein
▁topics
ima
▁Finland
▁treasure
▁realistic
odd
▁weakness
▁Bio
▁Bryan
▁advances
▁picks
▁distant
▁imagination
▁rubbish
▁queue
▁caring
▁Elon
▁anchor
▁adjust
▁rhythm
people
from
▁Cas
▁enhance
▁survivor
rey
▁compound
▁pas
▁injection
▁Memorial
▁1987
▁Nobody
▁Fame
és
▁Design
▁proving
-16
▁Nissan
▁unaware
▁expressing
team
feld
▁contributing
▁recession
▁Front
▁Avenatti
AT
▁intend
▁detectives
▁Abbott
▁Buffalo
weight
▁killings
llo
▁Sacramento
▁inclusion
▁Assistant
burg
▁accidentally
▁automatic
▁UAE
▁inspector
▁Tracey
▁reflection
▁root
▁isolation
taking
▁Chiefs
▁backstop
▁Lar
kh
ace
▁homicide
▁rebuild
▁musicians
▁trademark
▁MA
▁parallel
▁casualties
load
▁farms
▁pronounced
▁warehouse
▁Brit
▁presenting
▁dossier
▁chasing
▁79
▁ceiling
▁concessions
▁Djokovic
▁bounce
▁Oak
▁wi
▁shifting
black
▁Ambassador
▁Animal
▁lucrative
▁spacecraft
tis
phone
▁shield
▁lava
▁historically
▁Nike
Car
cio
▁ugly
▁Walsh
▁ward
▁Kal
▁trace
▁Hitler
-13
▁stranded
▁dumped
▁tolerance
▁Mnuchin
▁transaction
▁fancy
▁dual
shi
▁breathe
▁Climate
▁bankruptcy
anna
chan
▁fundraising
▁beau
▁heroin
79
▁compelling
▁costume
▁negotiated
▁header
▁banning
▁sealed
▁impacts
▁tasks
▁nominations
▁Islamist
cl
▁Bella
▁manufacturer
▁sin
▁snaps
ander
▁wondered
lat
▁mounting
▁gangs
his
▁Hudson
itis
tim
tern
▁sneak
▁shareholder
▁vent
▁starter
▁cute
▁Chequers
▁occupied
▁gan
phy
vie
▁fer
▁formerly
▁50-
▁88
▁expose
▁conflicts
▁farming
▁reckless
▁Ryanair
▁sticking
mir
▁Robertson
via
▁£20
▁sheep
▁Lebanon
▁Stockholm
53
▁cognitive
speed
▁sunglasses
aba
▁ba
tail
att
▁distress
▁controlling
▁31-
▁rep
ffer
▁Tonight
▁psychologist
▁Eye
▁Campaign
▁haul
▁opposing
▁photographed
▁aviation
▁Congo
▁appetite
▁intensive
▁serial
▁lists
▁contend
▁reactions
▁Along
Mogg
▁efficiency
▁cy
▁Medicaid
▁Political
▁respondents
▁sink
▁secrets
▁Cricket
▁mainland
tom
▁weigh
▁dresses
▁flown
▁ver
▁Brother
ici
▁sounded
▁disputed
▁lover
▁breed
▁catching
▁backdrop
Today
▁Jam
▁wise
▁militant
▁suitable
▁Obviously
▁Chen
▁reunited
▁neuro
▁unfortunate
▁Huddersfield
▁FC
64
▁bash
aid
▁Var
▁Lanka
▁lobbying
▁Thanksgiving
▁Detective
enberg
▁Total
▁Kas
▁Estate
▁Sin
▁Salvini
▁vitamin
▁Please
▁32-
▁journalism
▁Adrian
▁reacted
government
aro
lands
▁Nobel
Da
▁6-4
▁influenced
▁Cuban
MS
▁instantly
72
▁(5
▁Bee
▁intelligent
▁Hassan
filled
▁interactions
▁Pierre
▁Cornwall
▁leap
Jo
▁violate
going
▁pensions
fat
▁whip
▁subjected
▁washing
inger
▁attributed
58
▁700
▁Zoo
cle
▁Wind
pop
▁Face
▁Bat
▁orchestra
▁declaring
▁recruitment
▁legendary
tting
▁riot
▁rank
▁Kor
▁apologized
▁Nicholas
lf
▁countless
ddle
-12
▁scan
▁extract
▁Liz
woman
▁surgeon
Brien
▁introducing
0)
▁stakes
▁Churchill
▁Got
▁prestigious
▁Movement
▁priest
▁relax
▁consulting
▁teammate
▁Gerrard
▁habitat
▁vest
▁believing
▁Holmes
▁neo
▁participating
OS
yne
▁gorgeous
▁Wo
Every
kov
wl
nder
ologist
responsibilities
▁Amsterdam
▁cheating
▁sensation
▁policing
▁Ky
▁intervene
▁Armstrong
nis
▁performers
▁commentary
▁suburban
▁pri
▁Stu
▁disappear
▁Venezuelan
ovic
▁shaking
▁violating
▁5-
▁Salt
▁oven
▁Embassy
▁Jesse
▁Military
▁retiring
▁dignity
▁exploit
▁https
▁Counsel
▁recycling
▁castle
▁tattoo
▁fitted
▁blasted
▁brick
▁preparations
▁feud
▁Lynch
▁Fall
kel
▁Maine
▁Half
▁travellers
▁retaliation
▁por
bell
▁gw
▁completing
eck
ila
▁spur
▁Troy
▁complications
▁files
viv
▁Nashville
▁defendants
▁1979
▁defenders
▁Bayern
struct
▁Louisiana
▁Classic
▁median
▁Lindsey
▁marathon
▁Kirk
▁lighting
▁aggression
87
▁divisions
▁skull
▁cop
▁Mario
▁Ry
▁Overall
▁Dem
▁Mack
ear
▁Bolsonaro
▁dock
wydd
ili
ught
▁Check
▁contributor
▁(7
▁cargo
▁schemes
▁Pur
tive
ried
62
▁Gabriel
▁Coach
▁offset
elect
▁Grande
▁Richardson
▁significance
▁Ulster
▁Natural
▁mixture
▁Fan
berry
▁feedback
▁Stokes
pound
▁Spe
▁Danish
▁fortunate
▁unity
▁taxpayer
FA
▁Walter
▁Kam
▁columnist
▁occupation
cell
▁convictions
▁flick
▁denying
▁articles
▁acceptance
OR
▁sue
▁rocked
▁listened
▁graduated
▁considers
▁mob
▁sang
▁Oprah
pass
▁Newsweek
▁villages
▁tricky
▁pipe
pat
▁imposing
▁blew
▁hack
/2
mmer
▁literature
▁venues
▁kilometers
▁reviewing
▁shifted
▁shifts
▁financially
▁Patrol
▁expectation
▁texts
▁jazz
human
▁undocumented
▁Yulia
▁beds
▁endorsement
▁Rover
▁poet
▁precise
bol
▁impeachment
▁tra
▁dependent
▁Baldwin
▁careers
▁broadly
▁cho
▁riders
cost
▁reader
▁echoed
▁absent
▁emphasis
▁3-1
▁doubts
▁palm
▁kicks
▁Class
▁Jets
▁identifying
▁ballots
▁Portland
▁humour
▁slowing
▁nest
ska
▁grocery
▁assassination
▁deported
aux
▁Card
▁Victor
▁crowded
▁hometown
▁Der
tant
▁pr
kan
fold
▁Fish
▁admire
▁exploration
▁Kan
▁routinely
chu
▁thread
▁1982
ras
▁pressures
▁laser
▁wet
▁stored
arian
86
gie
▁torn
▁loaded
mbo
▁Bulgaria
▁apartments
▁memorable
▁101
lies
▁poster
96
▁administrative
var
▁credited
▁Command
▁instant
▁ritual
▁1.2
▁balanced
▁poorly
▁economists
52
▁Koreans
▁Coleman
▁Native
▁6-3
":"
▁Bernard
▁donation
▁cons
▁declining
▁yields
cial
63
▁2009.
▁dictator
stead
▁spill
▁wardrobe
▁Ahmed
ates
would
▁shade
▁Freeman
▁Eventually
▁financing
▁navigate
▁trainers
aci
▁purple
▁thumb
▁load
lick
CS
▁pork
▁32,
▁impacted
▁Isle
▁convincing
▁bay
▁86
▁lied
▁hail
▁Sochi
▁bedrooms
▁contacts
▁youngsters
▁alleges
▁cage
.25
▁artwork
▁stir
▁nominees
▁Gibson
▁cautious
▁piano
▁declare
78
bag
iling
▁patent
bro
▁farmer
▁Brexiteers
▁Reynolds
▁bargain
▁disrupt
▁2007,
▁Panthers
▁flexible
▁Sex
▁nail
▁Linda
inspired
▁Remain
ific
▁gentle
zing
Even
▁absurd
▁Drive
▁Cincinnati
▁unbeaten
▁designated
▁Cash
▁Gallery
▁whereas
▁Prevention
▁saves
▁publisher
▁Nielsen
▁voluntary
▁supplier
▁Legal
▁hackers
▁dirt
▁Len
▁jersey
▁soup
▁4,000
▁interact
mos
▁Prior
tta
▁Brennan
▁Voice
▁muscles
▁upgrade
trans
▁Nottingham
▁cups
▁Lab
loss
issa
▁asleep
▁BA
▁Winfrey
mus
▁awaiting
▁pale
,'"
▁rope
ager
Or
▁drum
rill
ann
▁Married
bie
▁Turn
▁subpoena
▁vintage
▁consumed
▁Britons
▁laboratory
ax
▁Rex
ingly
▁disorders
▁cooked
▁Trevor
▁competitions
▁Digital
▁Qu
▁bases
▁Doctor
▁WhatsApp
▁philosophy
▁wears
▁displays
▁recommends
▁profound
▁reserves
▁curve
▁humble
case
ene
▁Sally
▁convert
▁pastor
ied
▁attraction
▁Fran
▁widow
.45
profit
▁Beverly
▁secretly
Thank
▁Walk
▁Ob
bon
▁basement
▁mature
▁bearing
ground
plan
▁keeper
▁Mind
▁happily
▁Modern
▁autism
▁precedent
acre
pel
▁Natalie
▁Comp
▁tipped
▁deter
▁pause
▁productivity
▁jurisdiction
▁utility
▁lawmaker
▁Wade
fall
▁pills
▁belonging
RO
ddy
tine
SC
▁detective
gas
▁gardens
▁Liberty
▁greatly
▁Full
rial
▁lawsuits
▁documented
▁revelation
▁mosque
97
▁Root
▁Rory
▁alternatives
▁weighing
▁entrepreneur
▁Megan
▁apologize
▁Wagner
▁IS
lig
▁messaging
▁plug
▁submarine
▁mph
tered
read
▁surviving
▁shorter
▁slavery
sty
▁Nar
fit
-11
▁clause
▁Burns
▁thriller
▁attitudes
▁youngster
▁receives
▁Direct
▁Gay
▁Schu
▁Harper
▁disputes
▁bolster
▁Organisation
▁Perez
ua
▁Thanks
▁elect
▁Pochettino
selling
▁Melissa
▁envoy
▁u
▁speeds
▁evolved
▁blown
▁Keep
zar
▁130
▁floral
ees
quality
▁Nasdaq
▁assessed
▁1985
Good
▁flower
▁List
▁technological
▁cow
lash
NS
▁guilt
▁Carrie
▁favourites
▁Ellen
▁Third
▁experimental
▁crashing
▁Sho
▁Blood
▁Sebastian
▁grandchildren
▁Beyond
▁Peterson
▁Box
▁condo
▁1-1
vey
gr
big
▁scratch
char
▁Arnold
itude
▁Dal
▁diving
▁ghost
▁Mus
▁executed
▁ferry
▁Strictly
▁displaced
▁Kerr
▁Queens
▁outlined
▁BST
▁Sp
▁dancer
▁lending
wal
▁Derek
▁pig
▁1984
TI
▁Investors
▁belong
▁tables
▁endorsed
▁cocktail
▁unconscious
rest
▁structural
rit
▁forth
▁Leigh
▁Dark
▁Shortly
llen
▁inquiries
▁Cardi
▁cre
link
▁companion
▁ge
▁particles
▁Reports
▁doping
anti
▁jungle
▁underwent
▁revenge
▁cease
ID
▁Ramos
▁ordeal
pictured
flow
▁Crimea
7%
▁corporations
▁Bin
▁genius
▁pockets
py
▁sake
▁imagined
▁persistent
▁detected
▁ir
▁observers
▁likelihood
▁freed
▁Dog
▁Tru
date
arm
▁Bath
▁Help
▁dominance
▁Lennon
▁ladies
▁lethal
▁Cer
grad
▁turmoil
▁cab
tax
▁skiing
▁gaming
▁deployment
stock
▁Richmond
76
▁Round
▁setback
▁Rad
▁derby
▁utterly
▁Convention
▁proceed
▁forthcoming
story
▁amateur
▁Travis
▁Marjory
ida
▁evident
▁undergoing
▁floating
▁Jess
▁Bashar
.15
▁assaulting
▁Palmer
▁honey
▁poison
▁Parents
Look
▁lounge
br
Sha
▁turnout
▁extending
ern
▁hybrid
▁2008.
▁alike
hop
▁watches
▁dose
▁successive
lb
▁salaries
▁voiced
▁bleeding
▁failures
▁functions
▁Urban
powered
▁System
▁achievements
▁conclude
▁50,000
▁Vol
▁hatred
aria
▁submit
▁Leo
▁skating
▁Lords
▁Start
▁tumour
▁terrace
▁Sciences
▁dy
▁Theater
kins
▁los
▁Portuguese
▁Montana
▁Lind
▁pricing
▁Hen
dollar
▁Tel
ava
gram
▁margins
▁constitute
▁Panama
ound
▁rankings
▁supreme
una
▁distributed
▁Kat
▁renowned
▁runners
ident
▁Ski
▁credits
▁inspection
▁Joint
▁wildfires
oul
▁helmet
▁Communications
▁ruin
ivity
▁prompt
▁Bern
▁Prison
▁$25
▁Kit
▁Gavin
▁contempt
▁throws
oma
▁Horn
miss
til
rig
count
▁Very
▁counted
horn
▁Tree
shaped
▁Vale
chin
▁occurs
▁1,500
▁35-
national
▁Audi
▁concussion
▁assigned
▁silk
ular
▁equipped
▁Kerry
ses
▁complaining
▁governance
▁Sat
▁experiments
▁emotionally
▁prayers
▁Cle
▁coral
▁Kil
▁McIlroy
▁glory
▁plunge
▁Rain
▁Fat
ité
61
▁greenhouse
▁Ak
9%
▁Further
▁Save
▁dr
54
▁visitor
▁handing
▁midterms
▁quest
▁demonstrators
▁condemn
▁2006,
▁Logan
▁Soros
fake
▁boosted
84
▁floors
▁Bernie
▁punish
isa
gui
▁reiterated
largest
illo
▁Idlib
▁blaming
FC
▁cleaner
▁Spotify
▁shaped
▁34,
▁pharmaceutical
▁Brooks
road
▁je
▁crunch
▁Residents
▁ditch
▁rallied
▁Romney
sley
▁2030
▁bans
main
▁magnitude
▁Tell
▁copies
▁indicates
▁Casey
▁barred
ended
nel
▁poised
▁divorced
working
▁puzzle
cro
▁Heritage
▁Cristiano
▁Joan
▁Hull
hander
Fa
▁sensational
▁Nunes
▁Pink
▁hikes
▁download
▁produces
▁insider
▁relegation
▁Study
cin
shire
▁Pick
▁subway
▁contestants
▁permitted
▁Companies
▁heal
▁honestly
▁91
▁Finn
▁authentic
▁Poll
▁healthier
▁Douma
▁Clo
▁Clifford
▁toast
▁designers
▁searches
▁wings
▁Dy
▁tracked
▁polar
▁pill
▁£100
pic
Can
▁vet
▁dioxide
beat
▁0.2
▁narrowly
▁Private
▁austerity
92
▁Grammy
/1
▁OPEC
bla
▁nasty
▁permanently
▁publicity
▁worthy
kind
▁Yorker
ony
▁succeeded
fy
-8
▁advisory
Sa
▁sexy
▁borrowing
ect
udge
President
▁Morocco
▁Actress
▁6-
▁exploitation
▁coroner
▁FTSE
▁Resort
▁sofa
ois
eyed
▁restrict
▁combine
▁Fin
94
▁Swa
▁def
▁sympathy
▁Qui
asse
▁distinct
▁punished
▁accommodate
▁certificate
▁pets
▁indicted
▁albeit
▁stroll
▁showdown
▁Survey
▁89
▁1981
▁Kemp
▁rider
▁Sandy
trick
▁Lau
▁medicines
▁investigator
▁motive
▁::
▁$30
▁Updated
▁Lives
▁adverse
osa
-9
▁Universal
▁Sign
▁Relations
▁goodbye
▁Osborne
▁historian
74
▁Gove
▁locally
▁rubber
▁Rubio
▁pact
▁catches
dies
▁Kra
▁Bryant
▁rat
▁Clare
▁34-
▁speeches
▁demographic
cil
nia
▁Android
▁panels
▁Average
▁conversion
▁Sight
▁Spa
▁Want
bird
▁180
digit
▁Anfield
▁Ker
▁missions
▁frankly
▁Pet
aya
51
▁Guatemala
▁refusal
MC
▁Together
▁tackles
▁committing
▁portrayed
▁sore
▁Picture
▁confidential
▁overwhelmed
▁Close
ounce
▁delivers
▁Electric
▁vibrant
▁feat
▁regulate
▁relied
TH
▁cigarettes
changing
▁refers
▁Sel
▁shall
▁Steelers
▁inspiring
▁Surrey
▁buzz
▁prescribed
▁swap
Russian
▁whale
▁washed
Ex
▁sustain
▁intentions
▁Beast
▁Winston
▁fare
▁Hawking
bl
▁AC
▁36-
▁lace
▁Allan
▁slept
▁meantime
uma
LO
▁fallout
▁valid
▁Zimbabwe
▁imminent
93
▁achieving
▁existed
▁30,000
▁earliest
▁catastrophic
▁Mau
▁hunger
▁Bear
▁jumper
▁Griffin
▁terrified
▁Conor
▁smartphones
▁Culture
▁weaker
▁physician
▁antibiotics
▁risky
▁distraction
▁pitcher
▁Stanford
▁sunny
▁surveyed
▁exploded
▁Gla
▁adoption
▁Arm
▁Dancing
adi
▁ym
▁lion
▁Diane
▁countryside
▁productive
▁regain
backs
atory
shore
▁Deep
ET
▁Politics
▁Lot
▁Oxfam
▁costing
▁accuse
▁Match
▁poured
▁fatally
itt
▁Sai
▁Mou
esh
▁Biden
▁flies
▁Salvador
▁Manuel
▁sprint
eri
▁intends
▁Industrial
pple
▁consequence
▁0.5
LD
▁Bol
▁motorcycle
rock
▁internationally
▁guided
▁disciplinary
▁1976
▁Petersburg
▁splash
▁Shin
▁Ring
▁Thomson
▁Mai
pen
▁Airbus
GA
▁Rosen
▁Hyde
▁balcony
cept
▁Roth
▁interaction
▁printed
▁factories
▁bother
▁Anton
▁obligations
▁Sony
▁boarding
▁TMZ
▁minorities
▁Currently
▁investigative
▁Ebola
edge
▁casino
political
▁PSG
▁ti
▁shades
▁Cy
▁thrive
▁motorists
▁strangers
▁Published
▁supposedly
after
▁fod
▁emoji
▁yeah
▁Yeah
ase
▁eliminated
▁wherever
▁divisive
▁staggering
▁Boxing
tics
▁etc
▁lacking
▁(200
▁LeBron
▁Murdoch
▁Die
▁drafted
▁£12
▁athletic
▁elephant
▁legislature
▁Serbia
▁chaotic
▁halfway
▁2-
▁sponsor
amo
▁Circuit
▁cried
▁37,
▁astonishing
▁solely
▁Hai
▁tours
AD
▁Formula
▁agreeing
▁recipes
▁firearm
because
▁Bruno
▁Player
▁ought
▁Fulham
▁Kill
▁brink
▁mi
▁dismiss
NE
Rourke
▁alleging
▁2020,
▁36,
▁decorated
▁Cruise
▁Beat
▁rebound
▁balloon
stage
▁Hernandez
▁expelled
▁Sudan
▁calculated
▁Bas
▁literary
quin
▁Fellow
▁chunk
▁disastrous
break
71
▁subscription
▁Vikings
▁rings
▁Follow
dog
▁participated
▁Investigation
▁NRL
▁Case
-18
▁Nikki
6%
▁dancers
▁animated
▁treats
▁acquire
▁Shore
▁unrest
▁10%
▁boards
▁Rice
▁pursued
▁mill
▁Kir
▁ports
▁Luther
▁Hicks
▁Rooney
▁Leslie
▁fo
▁Haiti
uous
uz
▁$500
▁Pictures
▁Newton
▁lovers
▁touches
▁tsunami
HA
▁transit
▁outspoken
Who
▁Fast
▁Boys
▁Sullivan
▁angle
▁Toyota
▁Afrin
▁quarters
▁smash
▁Cavaliers
▁beneficial
lent
▁critically
▁Order
▁Saudis
▁2:
hur
tty
▁inevitably
▁exchanges
▁Coalition
▁divers
tens
come
▁Marsh
ender
▁criteria
▁podium
▁archive
▁Championships
▁founding
▁Roberto
▁parole
▁contrary
▁dissent
▁dawn
▁recommendation
still
▁str
▁Working
▁cellphone
▁neighboring
OC
▁Pakistani
▁confirming
▁Romania
▁scandals
▁slowed
▁Lionel
▁prepares
▁shelves
▁flexibility
▁occasional
▁interpretation
sharing
▁coin
▁behave
osis
▁churches
▁Find
▁dam
▁1983
▁Kenny
▁Happy
cel
▁jurors
▁hacking
▁villain
▁sequel
▁organisers
▁Drew
▁dividend
cen
pot
▁Iron
▁shortages
▁prey
▁Rd
73
▁veto
▁implementation
▁simultaneously
▁midst
▁96
▁Chapel
▁Thunder
▁chopped
▁fridge
▁Artist
dio
Smith
▁Minutes
▁entertaining
▁precaution
▁Double
▁lacked
▁sizes
▁rehab
▁transported
▁foreigners
▁Javid
▁Wildlife
▁swiftly
ache
▁Cowboys
▁Dam
▁fu
▁impress
OL
▁Barnier
TS
▁Target
▁nickname
▁beans
▁Barnes
▁loses
▁93
▁Lion
▁Vettel
OT
▁fixtures
▁Rat
▁elder
▁Falcon
▁Ankara
▁Cla
▁AL
▁Dawn
husband
▁courtroom
▁enhanced
▁creatures
▁appointments
▁$100,000
▁Cut
▁grows
Ar
▁cheek
▁wished
▁LONDON
▁Diamond
▁Planet
▁Greens
▁1973
▁epi
▁wipe
bor
▁buck
▁Alfie
▁bilateral
▁instances
▁Evan
▁pitched
▁Halloween
▁Sound
▁locker
▁associates
▁reunion
▁inclusive
▁accomplished
▁stab
▁Montgomery
▁tends
▁endangered
▁0.1
▁Volkswagen
▁steadily
▁Alison
▁Master
▁Mil
▁wisdom
▁magical
83
▁dismissal
▁slice
▁tenants
▁1978
anc
▁Industry
▁stairs
▁rainfall
owner
first
▁suffers
▁compiled
▁proudly
▁Davos
▁Janet
▁Making
▁lining
▁Latest
▁Based
▁outfits
▁distinctive
▁champagne
▁nuts
wise
▁abusing
▁rig
▁viable
▁Hazard
▁drill
▁conclusions
▁Aston
roy
▁miracle
▁reinforce
▁detailing
▁Ralph
▁priced
▁congressman
▁sensible
▁crushed
▁observe
▁correctly
▁Mom
▁Venice
▁freely
▁skater
▁mogul
▁sting
news
▁Erin
▁announces
▁embarrassed
▁Bale
▁wellbeing
▁fatigue
VIDEO
▁dear
▁stiff
check
▁advise
▁Andrews
▁wary
▁Fre
▁laundering
▁garlic
▁Schiff
vit
,600
eff
▁remembers
▁Raj
▁Majority
▁intake
▁Maduro
▁manages
gna
▁contention
▁Browns
▁cigarette
▁medications
▁accuracy
▁currencies
▁rated
▁Alexa
▁1930
▁Kids
▁bomber
▁photography
▁finest
▁squeeze
▁mineral
▁overturned
▁Para
Na
mma
oy
organ
serv
▁Youth
▁Dana
▁z
▁Rosa
▁tally
▁Carol
hel
▁plates
▁attendant
▁examining
▁technically
▁layers
▁hinted
▁instrument
▁adjusted
▁Wu
▁ladder
IG
▁dash
▁enterprise
▁fragile
▁exam
▁fraction
▁1972
call
▁protesting
placed
▁fringe
▁monetary
▁stigma
▁lonely
▁slap
▁Buckingham
▁revival
▁identical
complete
social
▁forests
▁Body
▁Name
▁una
▁grants
pack
▁1.3
▁Miles
▁Cost
▁integration
▁counting
▁vary
▁Statistics
▁SE
▁Reading
▁Challenge
▁warmer
▁relate
▁Jaguars
▁incentives
▁sunshine
▁flagship
,200
imi
▁accounted
empt
lessness
▁Record
▁authorized
sell
▁injustice
▁Remember
▁partial
▁spends
▁eldest
▁spectacle
▁explicit
▁charter
bus
nier
▁aunt
▁stays
▁labelled
▁accidents
▁spec
igan
▁supermarkets
▁airstrikes
▁1975
▁differ
From
▁Eden
dro
▁sheets
▁RAF
▁Cardinals
▁flows
▁ordering
TE
▁composer
▁availability
▁Use
▁interfere
▁Vic
▁thoroughly
▁bell
serious
▁inauguration
▁patience
name
▁YORK
▁alerted
CE
▁Housing
▁crops
▁Austrian
▁aesthetic
▁Millions
▁Spi
type
▁withdrew
zan
▁circles
▁Step
never
▁7-
Connor
▁Dance
▁flavour
▁Windrush
▁assisted
▁Elsewhere
▁94
▁laying
sub
▁component
▁grasp
▁performer
▁Amid
bot
▁Simmons
▁proteins
▁Creek
▁contestant
▁Ran
▁identification
▁cotton
▁Yan
▁gray
ello
▁seasonal
▁heatwave
▁vicious
▁slick
sten
▁reversed
BC
▁Broncos
▁correction
▁Getting
▁clouds
▁beard
iad
▁alarming
dress
▁Kabul
ille
▁preview
▁Monte
▁reserved
▁Dortmund
▁Armed
▁Sofia
▁Lock
▁Pedro
▁2007.
▁fold
▁radiation
nna
▁colon
▁Delhi
▁notified
▁groom
▁identities
lea
▁Pitt
▁texture
▁vo
▁Library
▁Visit
▁Hogg
▁flowing
stand
▁sensors
▁remark
▁spiral
▁Wal
▁spat
▁Wonder
▁prayer
▁Sainsbury
Semitic
▁pump
▁gloves
▁Chad
▁looming
▁healing
▁settings
▁knockout
▁Ter
▁boxer
control
▁traumatic
▁applies
graph
▁gaps
▁Liu
▁traders
▁Globes
▁timeline
▁chill
▁ignoring
▁eaten
▁Scha
▁canvas
▁donned
▁famed
▁shook
hir
▁1.4
▁brains
may
▁elevated
▁Stop
▁qualities
▁undoubtedly
cott
cons
▁Modi
▁Transportation
91
▁southwest
▁weakened
▁Cher
▁withdrawn
▁presumably
▁Airways
▁slower
▁float
▁Kimmel
▁elbow
▁Sue
▁aerial
mu
▁Dia
rine
▁switching
could
▁il
ulation
▁Non
▁exceed
▁Television
▁patron
▁Sav
▁Monica
▁sidelines
gling
▁ST
▁Noah
▁supplement
won
▁Dee
▁heating
dol
▁folk
brand
▁manual
▁Hook
▁Pla
▁sway
▁fury
▁spouse
▁destinations
▁rip
▁Zuma
By
def
eon
▁DailyMail
▁quo
▁motorway
ional
flight
▁prisoner
dine
▁relies
▁Grade
▁Gatwick
▁freak
▁Griffiths
▁sketch
5)
▁Ibrox
▁enjoys
▁Try
▁upside
▁Singh
▁enduring
▁blockchain
▁courses
▁handbag
▁accountability
▁lighter
▁cluster
outs
.5%
▁Magazine
tile
▁spice
▁princess
▁3.5
▁PGA
▁superior
▁Philippe
▁Empire
▁default
worthy
▁abuses
▁outright
▁Curtis
▁battled
▁supervisor
8)
▁Woodward
▁ramp
▁Beauty
Mi
aka
▁slogan
▁Farage
▁tactic
▁Eli
▁refuses
▁portray
▁Vancouver
▁sovereignty
▁dump
▁completion
▁disabilities
▁Lowe
▁Pot
▁assertion
▁mocked
▁surfaced
▁Mets
▁ALSO
building
▁Rh
▁limiting
▁certainty
▁35,
master
▁councillor
ency
▁Number
food
▁knees
▁neighbouring
▁Strip
▁Fel
▁connecting
thy
▁loop
itor
▁gunshot
▁paramedics
lets
own
▁colourful
▁yuan
div
▁Prix
▁pedestrian
▁Newport
▁verbal
▁Hogan
▁Clean
▁arise
▁incentive
▁Duterte
▁comparing
phan
▁quarterly
itch
▁deliberate
gon
▁batteries
length
▁renew
▁uploaded
▁marched
▁Reds
▁Store
▁Eugenie
▁shelters
▁Fen
▁Tur
▁Booker
▁obsessed
▁thorough
▁2006.
▁couch
▁kissing
emi
▁felony
▁stretched
▁Cent
▁Brits
▁volatility
▁landslide
▁soaring
▁acute
▁sexuality
▁Burke
mine
aeth
▁villa
▁witch
▁renovation
▁Whitaker
▁processed
▁references
▁CB
rou
▁surrender
▁Temple
present
▁sanctuary
▁handsome
▁poly
tha
▁Sachs
▁GE
▁pretend
▁recipients
lton
bil
goers
▁sections
▁happier
▁sadly
wind
,700
nor
▁Return
▁belonged
▁Hopkins
▁courtesy
▁educated
▁singles
▁Med
▁rumors
▁Rai
▁punched
▁sandwich
▁consume
▁Junior
▁Wolves
▁hottest
ij
▁fireworks
4)
▁burns
iser
▁Shakespeare
▁Davina
▁dire
ans
▁whales
▁unwanted
▁Holt
▁2025
▁staffers
rif
▁needing
▁Block
▁Holyrood
▁deploy
▁Dev
ancy
▁Hungarian
▁Vienna
▁enabled
▁Sister
▁cord
▁install
uv
▁Rush
▁stones
▁Trent
bur
lement
▁honored
▁Jet
▁Uruguay
mini
▁backgrounds
▁incoming
lett
▁temple
▁volatile
▁gamble
▁Corps
▁Geneva
leading
▁wildfire
bbing
▁heightened
▁aggressively
CO
▁1974
▁endure
▁skilled
▁soared
▁Heavy
▁clarify
Wa
ote
Russia
▁Neville
▁mock
▁GPS
driven
▁tresses
▁Bears
▁Across
▁VI
▁asthma
▁fist
▁capability
▁drilling
▁Berg
▁tribunal
▁institute
lation
▁obligation
▁laughter
▁advert
ease
fed
▁convey
▁commentator
▁junk
▁utter
zzo
▁limitations
uter
course
▁heartbreaking
got
▁Nazis
▁97
▁SEC
▁retro
▁rang
▁quake
▁ash
SP
▁Rafael
▁mortality
president
▁Zu
▁Joy
▁robotic
▁birdie
▁Abdul
▁instinct
▁horizon
▁ideological
▁earrings
▁submission
▁banana
▁staple
▁collar
▁Crawford
82
▁mounted
rup
nation
▁symbolic
▁Shan
▁Analysts
dden
nit
▁1967
▁lone
▁respective
▁tanks
▁judged
ico
▁Stakes
▁Rand
▁Living
▁Mari
▁forming
▁Common
▁Holiday
▁surged
▁Yard
ggle
▁reckon
▁blogger
▁Sc
▁protocol
▁sworn
▁Barclays
▁chemistry
seat
▁Hopefully
▁drain
▁highlighting
▁richest
▁Arkansas
▁Zoe
▁bend
▁lands
▁Brook
▁Khloe
▁broadband
dell
▁hamstring
▁smiles
▁Nan
nam
ault
▁Belt
▁Indianapolis
▁valuation
▁mobility
▁Manning
▁bush
▁Martha
nate
super
EL
etti
▁Hayes
▁200,000
▁startup
▁Bulgarian
▁filmmaker
▁Galaxy
▁rehabilitation
▁refuge
▁tiger
▁bucket
Of
turned
▁extremist
▁carriage
▁plunging
▁Vince
▁relying
▁justified
vision
▁brawl
▁instruments
tical
▁championships
▁Conway
▁escalating
▁seize
hat
▁contender
anda
▁ammunition
▁ideology
etta
▁rented
▁instructed
sea
▁relentless
▁recruited
▁Gardens
▁tasked
▁Thrones
▁gently
▁REUTERS
▁slump
▁campaigned
▁profitable
▁yacht
▁prosecuted
▁Brothers
▁Ave
▁lenders
▁rolls
▁poisoned
▁Honduras
▁accessories
▁Southwest
bling
▁adorable
▁Gall
▁oral
▁pat
▁audition
▁glorious
▁flesh
▁2021
▁Middleton
▁Naomi
▁Veterans
▁overturn
walk
▁Indonesian
▁superhero
▁zip
▁Matthews
▁purchasing
▁pic
"),
▁revised
▁Alexandra
▁beverage
▁jewel
▁Tin
▁batter
Cortez
▁applicants
▁bri
▁illnesses
81
FI
▁merit
▁negotiation
▁1969
generation
hearted
third
▁Glass
▁jewellery
chief
▁integrated
▁straightforward
store
ously
acher
▁ham
▁outline
▁Fal
▁37-
TT
▁recreational
seeded
▁Hilton
▁$11
▁benefited
themed
▁attends
▁eve
▁salmon
▁classical
▁Players
▁establishing
▁3-2
▁Din
▁True
▁boring
position
▁wiped
▁Fernando
LL
▁Trail
▁fin
through
uit
▁Dani
▁Thatcher
▁manslaughter
▁Sandra
cum
▁Someone
▁glamour
full
▁PhD
agh
▁1940
▁learnt
,300
▁été
▁obsession
▁Mak
▁Coll
▁fool
▁Pol
▁bicycle
▁Index
▁clue
▁southeast
▁Latino
IL
▁accelerate
▁Years
▁Holy
▁disposal
zza
▁prohibited
▁relieved
shing
▁CBD
▁contractors
▁problematic
▁skies
▁unusually
offs
▁pu
▁Jacksonville
comp
▁clutch
proof
▁Columbus
▁grandparents
▁FO
▁lobbyist
▁Base
▁encountered
▁Southeast
PL
idi
▁Hindu
did
▁northwest
ndi
▁knocking
ando
ffe
▁destroying
rise
▁sal
▁Footage
floor
▁CH
▁lengths
lad
gard
bul
▁VA
serving
iva
aff
▁Memphis
▁Castro
VA
▁allowance
▁neighborhoods
▁ter
▁Better
▁appalling
ced
▁lightly
▁Support
▁2005,
▁Gui
▁clearing
▁Mir
▁Gran
▁adapted
ibly
Qu
▁monitored
▁swift
ished
▁Bible
IP
▁newest
▁Mah
▁conceal
▁Ashes
▁Racing
security
▁underwater
▁organizers
say
▁chemotherapy
saving
▁wheels
lai
▁Sharon
ucci
Hi
▁silly
▁backup
▁contentious
▁performs
faced
▁Vas
▁unbelievable
EE
▁prejudice
▁urgency
mouth
cas
sum
▁Penny
raw
▁backyard
▁paperwork
▁harassed
▁magnificent
▁batting
▁lump
▁6-2
▁homeland
▁surplus
▁Cara
▁4-1
iri
▁Gonzalez
▁Sunderland
▁kidnapping
▁plead
OW
▁owed
ifies
▁Ven
neck
▁enclave
▁therapist
figure
▁inflammation
▁adequate
Pe
pri
▁amongst
▁Catalonia
▁turkey
▁grandson
▁maintains
▁descend
▁mono
▁observation
▁Tennis
▁dealers
▁wickets
▁labels
▁Ap
▁administrator
▁hormone
▁eagle
▁eventual
loy
Assad
▁supplied
▁Farrell
▁sprawling
DC
▁Markets
▁Bow
▁destructive
▁sported
▁hardware
nau
▁tele
yu
▁imprisonment
MO
▁contaminated
▁Liga
▁Going
▁convenience
▁suck
▁Berkshire
▁denounced
▁fits
▁briefed
ér
▁min
▁premature
ites
▁indicating
▁helm
▁ageing
▁kills
▁economics
▁retained
▁Argentine
▁Securities
▁140
▁Uni
▁issuing
▁altered
▁1977
▁Tea
▁hurting
▁poem
▁skate
▁Phillip
hot
▁Meng
▁compromised
▁sticks
▁millennials
▁bands
▁presidents
▁Consider
ego
▁colors
▁suing
Ja
ctor
▁Ol
▁linebacker
NC
▁solicitor
rai
▁possibilities
▁1971
▁yen
▁showers
eta
▁subsidies
▁transcript
▁underwear
dam
▁Dozens
▁organs
▁tactical
▁beautifully
▁immense
▁visas
▁Lance
▁Shadow
▁charts
▁Alli
UK
▁evacuate
▁Few
hall
▁exchanged
▁Parkinson
▁institutional
parent
▁sights
▁lid
▁chased
▁fertility
▁postponed
▁entrepreneurs
▁programming
▁coordinated
ivo
lé
▁Criminal
▁pray
▁charming
▁despair
▁troubling
listed
▁Throughout
▁ga
▁Scot
▁linking
ime
▁oh
brook
change
ink
▁landlords
conscious
▁scorer
▁Tina
▁succession
ito
late
▁dim
▁overseeing
MI
▁45-
▁travelers
▁cheat
▁110
▁naval
▁Tiffany
▁purse
▁potatoes
▁Riley
▁Sgt
▁1.8
record
absolutely
▁deputies
▁Renault
▁Forbes
▁confirms
Mu
▁halted
▁darkness
▁chin
▁showcased
rent
▁Mate
▁bikes
▁Need
▁deaf
▁concentrate
▁premises
▁Fur
▁WWE
▁Yale
▁copper
▁Roseanne
craft
▁consciousness
▁rejection
IM
▁fictional
▁Abrams
▁ZTE
▁overweight
▁Yesterday
▁socks
▁DE
▁convenient
▁campaigner
▁Por
▁Fiona
RI
▁cared
▁Et
▁separately
▁Beau
▁extradition
▁Lily
▁Corey
▁bidding
emp
▁Kha
▁reflecting
▁Hispanic
▁Airbnb
▁Something
▁cart
pol
nut
▁GB
▁litigation
9.99
▁NCAA
▁es
▁98
▁Bezos
▁raids
▁obstruction
▁50%
order
▁independently
▁undercover
hoo
isi
igo
▁aging
▁floods
Ga
▁Strong
▁Knights
▁timetable
▁discharged
▁exhausted
▁militia
▁Euronews
pit
▁Tunisia
tti
▁suited
▁Magistrates
▁Prosecutor
▁negotiator
▁0.3
▁raft
▁traditions
▁Gomez
▁stride
▁preference
▁borrow
iver
including
Mexico
▁Ultimately
▁electorate
▁Comcast
ils
▁rides
▁Denis
▁vague
ography
▁Gardner
▁lets
▁partnerships
▁Eu
▁Flo
▁pleasant
▁capped
▁decides
▁lesser
rov
▁takeaway
▁blockbuster
▁Sharp
NY
▁bonuses
▁explicitly
▁resilience
sham
▁Titans
▁indulge
▁Yellow
▁Annual
eye
ying
▁Nevertheless
▁tier
bbed
▁Pack
▁Thames
▁sadness
▁obese
▁Courtney
2)
mid
▁lawn
▁socialist
▁satisfaction
▁composition
▁Wine
▁wireless
▁Self
▁evangelical
▁drills
▁Style
▁Helsinki
▁Partners
▁boasted
Mon
▁surgical
▁fibre
▁NHL
▁affection
▁blessing
▁(20
▁stall
cake
▁fond
▁postseason
cies
fighting
▁Beth
▁Earl
▁shorts
▁intern
▁Cra
aud
▁abs
▁LI
Ka
▁murdering
▁Enforcement
▁insurers
▁Lynn
▁speeding
▁Revolution
▁Buck
▁Insurance
▁entities
▁vibe
▁helicopters
dos
▁scenarios
▁laughs
▁empathy
▁Sleep
▁reopen
▁languages
▁input
NO
▁Grove
▁Bronx
▁heaven
▁unlawful
rice
▁Hey
▁probation
▁Wigan
▁DA
logy
▁hatch
▁Mills
▁rhino
▁bogey
▁Abbey
Hu
cca
▁Luc
▁Bali
▁Mul
bach
▁Kiev
▁Cul
heart
▁Jonny
▁Shaun
▁lecture
▁Ala
▁imprisoned
ago
▁Ok
▁viewer
▁provisions
▁weaken
Because
▁Ah
▁Jenny
▁Ahead
tus
num
▁inaugural
▁banner
isse
▁directing
▁(8
▁Bart
▁accusation
▁Yang
▁creativity
▁instructor
▁pitches
kie
▁Juncker
worm
eight
▁proceeds
▁Gerard
▁Fargo
▁marker
▁Connor
▁blunt
▁flourish
▁clues
▁wreck
▁ashamed
abi
▁(10
▁aux
▁Jazz
▁quicker
▁Host
ider
▁Primary
▁ceasefire
▁cael
sec
▁$1.5
▁Kosovo
▁arsenal
▁footprint
▁baking
wel
▁vows
▁Koch
▁Previous
Everyone
▁disrupted
▁closures
▁Donna
▁molecules
uro
make
last
▁shootout
▁Neu
▁Singer
▁overlooked
▁cops
▁scrum
▁snack
▁throne
▁steak
▁Sab
▁contenders
▁homelessness
▁prohibit
▁Rica
▁Carroll
morph
▁Rita
ake
▁Cri
▁Summit
▁Stay
▁hydro
▁Lamar
▁0.4
▁sums
6)
▁magnetic
inate
▁Mich
▁pasta
▁Exeter
▁Wor
▁Heights
PR
▁Huckabee
▁thrust
bet
lated
▁minors
▁norms
▁£50
▁exile
▁Carey
▁overwhelmingly
▁roast
green
rina
▁commute
▁televised
▁Valencia
▁Cheryl
▁turnaround
▁theaters
▁£15
▁Sale
dri
▁quotes
▁rivers
▁tro
▁Tara
▁Ble
▁foe
▁Uganda
▁fortnight
▁cattle
▁ego
▁Az
▁judgement
▁RE
enko
sexual
▁outcry
▁employ
▁Hammer
▁doubles
▁Current
bid
▁demonstrates
▁Norfolk
growing
▁6.5
▁Echo
utter
friend
▁debts
▁unpaid
▁directions
▁neglect
▁deliveries
▁umpire
▁McDonnell
wei
▁lens
▁creature
▁Sources
▁poetry
▁attackers
deep
▁Ny
▁warfare
▁slur
▁ginger
▁Gur
John
▁$13
▁pavement
cross
▁gates
▁Spaniard
▁nearest
America
▁fuels
▁belongs
▁Nigerian
7)
▁mechanisms
North
goal
▁ensured
▁mal
/22
▁sculpture
▁sparking
,400
▁constructed
▁Tyson
▁2004,
▁releases
pid
▁disgusting
▁recycled
USA
▁busiest
stick
▁slowdown
▁pinch
▁Lower
six
▁Deutsche
service
▁$16
ott
▁figured
▁Harbour
▁vacuum
▁Large
▁Meyer
▁effectiveness
▁confession
▁1.6
▁flawed
▁boosting
ception
▁substances
▁respectful
rol
▁predictions
▁20%
▁Bradford
▁till
metre
▁Qualcomm
▁6-1
▁contested
oid
core
▁prostate
▁Stella
▁Hours
http
▁accuses
▁Jill
▁lanes
▁statute
hon
BO
▁reconsider
trade
▁Everybody
ckle
ech
▁Flake
▁excluded
▁credentials
▁Thi
▁rewards
▁Patricia
▁harbour
▁4-
lim
▁Nat
asi
▁sellers
▁Wynn
▁Falcons
guard
iding
▁Bert
▁Single
▁abilities
▁Lukaku
rising
▁activism
▁Give
▁Preston
▁gaze
▁mug
▁Shield
▁electro
▁replay
▁respects
▁jihadist
▁(12
▁surf
zel
owski
teen
▁logic
▁skeptical
▁naming
His
▁blade
▁Mix
▁tolerate
▁inch
▁Mulvaney
Pacific
▁9/11
▁sitcom
▁offender
▁Vir
▁Isa
▁Bos
wyr
▁characteristics
▁finishes
▁Steel
.75
▁Cathedral
▁lorry
▁Sears
ride
▁rightly
▁recordings
▁backbench
▁RB
▁vegetable
▁compassion
▁cyn
▁Sau
▁trim
▁Agent
bone
▁Mohammad
▁Kitchen
▁indoor
▁Roe
▁pedestrians
city
▁afterward
▁Official
▁ballet
▁Stevens
▁debates
▁thrilling
▁Novichok
▁inviting
▁depressed
▁urges
▁mentality
▁Osaka
▁bullied
▁overhead
▁curator
ulated
▁tournaments
▁permits
▁easing
▁psychology
▁escalation
▁facilitate
▁obscure
▁exempt
commerce
▁lungs
▁Sk
▁Loch
▁grill
▁oceans
▁Rouhani
▁surround
▁Mini
▁Ryder
▁Bach
▁Swi
▁angel
▁Atletico
▁McMaster
▁Vermont
▁Legend
▁servants
yr
▁awesome
eli
▁attracting
live
▁avec
▁appoint
▁Berry
▁obstruct
▁corporation
▁aligned
GB
gro
▁ousted
▁embracing
▁Lindsay
▁subscribers
▁spine
▁raced
▁aggravated
▁poorest
▁38,
▁outrageous
▁Noon
Most
▁whoever
▁humor
▁hospitalized
Germain
▁halftime
▁frequency
ode
ario
▁4-0
▁purely
SS
▁glow
▁prosperity
▁Tha
▁Factor
hart
▁Mann
▁dealer
▁smear
wai
yes
▁complement
▁touring
▁NGO
hurst
▁novels
▁distinction
▁unpredictable
▁Article
▁Shop
▁Link
▁innocence
something
OK
▁regulated
dem
▁hazard
▁temper
▁embarrassment
ller
▁Records
▁northeast
loved
Get
attack
ista
▁Observatory
▁evaluation
▁gravity
▁predominantly
▁informal
▁persuaded
▁Access
▁6,000
▁enabling
▁Sinclair
▁absorb
eman
▁curtain
tract
▁Haspel
▁Search
wyn
▁pope
zero
rap
Nazi
public
▁Observer
▁genome
▁scholarship
▁Quinn
▁accurately
▁distract
▁applause
▁themes
kill
▁Presidential
▁Dur
MP
shoot
▁inherited
▁Christians
▁Cast
▁Meet
▁doll
▁Victory
▁heir
▁Timothy
▁Blasio
▁screw
4%
▁masks
▁pickup
▁NY
▁cheering
▁competitor
▁emailed
▁mates
▁enthusiastic
wash
▁scent
▁Johnston
sent
clear
▁Angels
▁Newman
▁Macedonia
▁deceased
▁100%
▁Highland
▁employs
▁Sinn
▁flaws
▁Fiji
fil
▁Bros
▁Isaac
▁shattered
▁Jar
▁holders
▁apple
▁$1.2
▁Katy
▁hills
▁Chang
▁Cord
▁potent
▁bullets
▁licensed
▁stalled
▁pod
▁albums
▁insights
gene
▁Gab
▁Gymnastics
▁separating
▁dried
▁payout
ingham
▁extremists
studded
▁Upper
▁Brun
▁condolences
▁badge
fair
▁Web
.95
▁skip
▁selfies
▁assembled
▁budgets
awa
▁Moreover
ively
▁recruiting
▁nerves
▁shirts
▁shaken
▁Break
▁Mia
▁injuring
▁unidentified
▁transfers
▁Orban
▁brace
▁Monaco
▁daring
trial
Com
▁analyzed
Ne
▁blank
▁Operation
▁Additionally
▁sovereign
▁strap
▁mount
▁tub
▁Sweet
▁Ocasio
▁attendees
▁extinction
▁corners
▁cub
▁signatures
FF
▁rifles
▁pivotal
▁reassure
▁Bomb
PP
▁whisper
▁coins
▁transmission
▁rewarded
▁ser
▁WikiLeaks
rrell
tone
▁construct
▁clips
pha
hara
▁prisons
rail
▁Stephens
lbs
▁definitive
▁Watts
▁Erik
▁standoff
nz
tank
▁judiciary
▁dessert
▁lipstick
dition
site
glo
▁congress
▁encounters
▁stuffed
▁cracked
▁declines
▁Shar
▁persist
▁Springs
cock
EST
▁denim
HS
▁revive
▁Norwich
drive
▁Families
▁restoration
▁ruthless
▁contractor
▁wholesale
Hey
▁propose
▁fractured
▁2001,
▁lifelong
▁pulls
▁opioids
▁350
▁intact
▁toned
▁fundamentally
▁woes
▁Harley
▁Lil
▁CNNMoney
▁nephew
▁packet
when
▁tooth
▁encourages
fen
▁Kaepernick
▁luxurious
▁skeleton
▁mechanical
▁accompanying
park
▁Map
aving
▁luggage
▁wrestling
▁sharks
pac
▁Bloom
▁40%
▁uphold
▁gifted
Bu
▁Danielle
▁Frenchman
mad
▁travels
▁slave
DE
▁Nicolas
-21
▁tricks
▁Suarez
▁maternity
▁Melrose
ule
▁ME
Pre
▁comparable
▁Guinea
▁boutique
▁stump
▁challenger
▁thirty
▁Movie
▁Kon
▁oedd
cking
ook
▁Amnesty
▁Pl
▁battered
fashioned
▁dare
▁origins
▁Tayyip
▁airplane
▁borough
▁Newsline
▁Gene
▁unpopular
▁deadliest
▁sponsored
▁sweater
▁nutrition
▁planted
▁unsure
▁Initiative
▁Yas
▁Indians
▁satellites
▁unchanged
▁suitcase
▁cruelty
▁Chu
▁sperm
▁Kurt
hoe
▁unveil
▁scar
▁Det
▁powered
harm
▁fabulous
▁Chemical
▁kindness
▁Tale
▁Lip
▁Raab
▁litter
bas
▁flour
▁departed
▁Callum
iga
,800
▁inability
▁Marr
▁expulsion
▁illusion
▁composed
8%
▁Mission
▁edited
▁3:
▁obstacles
▁skipper
ush
▁maps
▁Quin
▁bowling
▁Germans
▁regards
General
▁oversee
▁stretching
!!
NI
▁harvest
▁Chester
▁positioned
▁Kara
elling
▁lend
▁Klein
▁Gina
▁proves
▁affirm
keeper
▁Sure
pal
▁varied
▁Montreal
▁Fresh
▁gal
nine
▁concede
▁Somerset
▁wrongly
UN
▁goat
scoring
▁decreased
▁inadequate
▁prosecute
Americans
▁grassroots
bee
▁harness
▁1964
▁marketplace
▁Hat
▁authoritarian
twitter
boat
▁farewell
space
▁Studios
▁Thor
▁knives
iac
▁poorer
▁puff
▁avocado
▁coconut
▁grain
▁Froome
umb
▁specialists
▁pupil
▁Toys
Your
▁Schmidt
TO
▁wallet
▁Mandela
ality
▁shapes
pla
ssel
▁39,
▁styles
▁measuring
▁synagogue
▁terrific
▁60-
▁communist
▁Grey
▁1966
▁tortured
DS
▁MO
▁cri
izer
▁prolonged
▁Broward
▁nationally
▁leaks
hem
▁detection
nea
▁explored
▁aluminium
▁longstanding
elo
▁jackpot
▁reboot
Je
lich
▁repairs
▁2000,
cryptocurrencies
▁gratitude
▁mod
▁troubles
▁sidelined
▁surveys
▁Bag
▁consultancy
▁pornography
▁cautioned
cla
really
fight
▁clinics
▁complexity
▁arrange
▁(0
▁McLeish
▁irony
▁verify
▁Alexandria
▁Arsene
▁atop
▁Barrett
▁averaged
leaning
▁Politico
▁Miranda
▁zu
▁Micro
▁monarch
▁Kos
▁Sheeran
▁pioneer
▁restart
▁0.7
▁sober
▁eyebrows
▁scans
▁liability
▁photographers
atic
ae
leigh
▁pulse
▁estranged
▁iPad
rod
▁massage
▁WHO
rav
▁norm
vant
other
▁Paper
workers
▁govern
▁Bab
▁saga
▁warrior
▁microphone
▁burial
▁backpack
▁touted
▁invented
▁nonsense
sided
▁questionable
▁Sales
▁Stand
grove
▁Clearly
▁Rockets
▁Kenneth
▁Durham
▁blessed
▁popped
▁pré
▁steer
▁rehearsal
▁bodily
root
▁cosy
▁Intel
▁lightning
▁unite
▁Keeping
▁passer
▁Dale
▁wasted
▁relish
▁42,
▁Aviv
▁UC
▁Higgins
▁owe
▁hacked
▁Ethiopia
omb
▁lamb
▁(£2
▁arc
fr
▁medieval
▁Kendall
▁slid
▁Roll
▁museums
fix
▁Aviation
▁Maxwell
▁concentrated
▁Spice
▁volumes
▁lecturer
▁Similarly
▁Bulldogs
▁lesbian
▁ci
▁Ambulance
▁rebellion
▁hardline
aver
▁endorse
rop
2%
fri
jar
▁allege
1,
▁fortunes
▁joking
▁outgoing
▁sleek
▁reclaim
▁socially
▁Horse
▁entre
▁Spacey
▁rob
▁outer
▁Ur
▁breached
▁turf
▁Seth
▁descent
▁pond
▁Coutinho
▁clashed
direct
▁Deb
cup
storey
▁Note
▁7-6
▁void
▁hats
▁raided
▁troll
▁Isis
▁Clear
▁Diet
▁gel
-35
▁prospective
▁Opposition
Har
RG
▁Train
▁fueled
▁compliment
phi
▁FT
▁disregard
▁Shannon
▁restraint
eem
▁illicit
▁puppy
▁rapist
.40
igh
▁1.1
▁steering
▁Townsend
Tra
▁assaults
▁carriers
tag
▁Burton
▁shallow
▁insult
▁vanished
lant
▁hated
▁remainder
▁Firm
▁Imagine
▁Cunningham
▁Alphabet
▁colonial
▁physique
▁crush
▁Shell
▁Cannes
▁guarantees
buy
eno
interest
▁Abbas
stars
vig
▁Boyd
Ta
▁flaunt
▁psychiatric
▁pla
▁slapped
FE
▁faint
OP
▁candid
▁Viktor
▁Jurgen
▁Beck
▁heroic
girl
▁verge
▁breeding
▁barrister
▁Feinstein
▁tendency
▁stack
extremely
▁NYC
▁900
▁substantially
▁Matter
▁Bour
▁PS
▁Obrador
▁precision
▁vulnerability
▁Simone
cé
▁competed
▁Often
▁advertisers
▁2003,
▁functioning
▁strengthening
▁solved
▁considerably
▁Elton
▁falsely
▁gem
blo
lac
RS
▁Gallagher
▁vaccination
▁confusing
▁Guide
▁leaning
ential
Over
▁Tai
▁assessments
▁Cyber
▁genital
▁AA
▁Eva
▁nationals
▁Hell
▁upstairs
▁Grassley
▁unsafe
▁reopened
▁volcanic
▁tumor
gic
▁rude
▁Hang
▁Colts
agon
▁modelling
▁mindset
▁Noel
▁Wendy
▁discovering
Many
PO
▁academics
May
CBS
special
▁rational
▁IOC
▁rebuke
▁pleading
lining
▁automated
double
▁Charlottesville
▁scattered
OM
▁blowing
▁Yi
▁Tal
▁prone
▁ruined
iah
▁1/2
SL
uce
▁worship
▁tbsp
▁averaging
▁illustrate
little
▁$14
▁handgun
▁wildly
▁Jerome
hra
▁Lt
▁inspectors
▁Tests
▁assisting
▁advancing
▁charitable
▁sank
▁thoughtful
alter
▁costumes
▁rigorous
▁ounce
nge
▁posters
▁resumed
▁Diaz
bow
▁commuters
▁Enterprise
▁assignment
▁Ari
▁assure
dig
tell
▁Athens
▁admissions
▁Bang
▁Lyn
▁contents
▁revolutionary
gol
▁Mental
▁heap
ranked
TC
▁Studio
2018
▁rescuers
▁Lead
▁40,000
▁Pas
▁38-
▁Date
▁gyf
▁jockey
▁surreal
▁intriguing
▁intentionally
▁bothered
▁Sugar
▁garment
▁container
normal
▁swipe
▁Vanessa
▁$60
▁stressful
▁Ing
▁bridges
▁tabloid
▁rub
▁acclaimed
▁capsule
▁4.5
stad
rage
▁skinny
▁pushes
▁Ecuador
▁kidnapped
▁hefty
▁Sportsmail
▁nationalism
dry
bing
▁asteroid
▁Cell
▁Comm
▁Chung
pho
▁appreciation
▁Aboriginal
▁indecent
square
EM
▁£30
▁monument
Sp
▁nonetheless
▁scholar
▁rabbit
▁$10,000
▁Colombian
▁depart
▁breaches
lov
▁Johan
▁Behind
▁Apollo
▁mural
▁wit
▁shelf
▁regrets
▁framed
▁coastline
▁hostility
▁undermining
pent
▁enforced
";
▁burglary
▁Strike
nik
▁$17
ega
vir
▁acc
▁tire
▁profiles
▁collections
▁Revenue
▁umbrella
▁niece
▁sponsors
rink
▁Jamaica
lop
▁onstage
tum
▁Waters
▁supremacist
▁glance
▁Brock
ao
▁sword
▁Paulo
▁potato
▁spinal
loud
▁penis
▁marble
▁swimmer
▁sail
uni
▁curl
▁Hatch
▁Analysis
tig
▁traits
dent
▁Lancashire
▁spite
trained
▁Fifth
▁males
▁penned
country
▁nano
▁Worth
▁160
meter
▁ingredient
headed
▁Hezbollah
▁mourn
▁McA
▁Kla
▁Byron
▁Finch
▁staging
nova
▁Partnership
▁Gilbert
▁Dunn
enti
▁Athletic
▁racially
▁Led
▁Dhabi
▁misses
▁Chapman
▁painter
▁chilling
▁greet
▁marching
▁footsteps
arch
▁preserved
▁physics
▁anticipate
ema
▁occurring
uld
▁seated
▁toughest
Any
▁expenditure
▁Minority
▁bounced
▁Ava
perfect
▁killers
▁synthetic
▁necklace
▁tended
▁Maj
▁usage
▁Lara
South
▁Ghosn
ener
▁neurons
▁Stacey
▁cooperating
▁Margot
assi
▁electronics
▁wives
▁Forrest
founded
▁Sor
▁evaluate
▁barbecue
▁siege
▁terrain
▁fiery
▁lamp
1%
aine
▁server
▁valley
cular
▁batch
NT
▁cyclists
urge
▁cushion
▁friction
▁smallest
▁Recently
▁enables
▁implant
share
▁icy
▁contracted
▁brow
path
▁Bed
▁Minneapolis
▁hon
▁acknowledging
▁rode
▁Recent
▁Foot
▁Writer
rad
▁unexpectedly
▁dimension
▁Iain
▁Centers
▁positively
hang
▁answering
▁1000
▁eclipse
▁Rap
▁rivalry
fired
ician
source
▁comfortably
▁elephants
▁Sco
UL
▁sack
▁studios
▁outraged
▁scooter
tering
▁tilt
each
▁Reform
ido
9)
▁Camilla
sburg
▁Matteo
▁damn
▁talents
▁McGowan
▁constituency
▁sausage
tall
▁Systems
European
▁Packers
▁chefs
▁nicknamed
▁sparkling
▁favored
▁Leah
▁Gemma
▁torch
▁tram
▁Wait
▁gin
▁pouring
▁replies
▁scrapped
▁Murder
Day
▁insects
▁Mega
▁observations
▁Maguire
▁suppose
▁Poor
▁oath
▁cyf
▁raping
▁catastrophe
▁getaway
bia
▁matchup
▁Schools
▁exploited
▁upheld
mination
▁Says
ws
▁Pride
business
▁backwards
help
▁Month
▁Pool
▁Technologies
▁Elle
lk
▁stylist
▁Focus
▁pillow
▁cyclist
▁Sad
ranging
▁Walt
lene
lou
▁snacks
▁surgeries
▁interrupted
▁cardiovascular
▁cottage
▁outskirts
▁exposing
corp
▁Wick
▁responders
lev
▁securities
▁tribal
▁rant
▁Away
quet
▁clerk
▁smuggling
fon
▁tightly
▁Chair
/20
▁parenting
▁leisure
▁exclude
▁qualification
▁intersection
using
factor
▁Mauricio
▁booth
lessly
▁ecosystem
▁edged
▁advises
▁captures
▁Drink
ference
▁remarkably
▁analysed
PC
ref
ienne
▁Hale
▁cement
▁1.7
▁smoked
mother
hai
▁Santos
TER
Yeah
▁notification
▁rot
▁disasters
▁Yong
▁eco
▁Chamber
En
writer
▁waving
▁tucked
▁Spot
▁plagued
▁Strait
▁escalated
▁Graeme
▁lightweight
eux
▁bla
plain
:45
▁AIDS
▁Zach
▁fishermen
▁residency
▁exclusion
▁praising
▁breasts
▁hop
CU
▁discounts
▁Triple
▁playground
▁sneakers
▁consistency
▁sensitivity
▁Hour
erman
▁rotation
▁warmth
West
▁Row
▁44,
▁Restaurant
▁cleavage
▁implementing
▁perpetrators
▁amendments
▁concerts
▁imagery
DF
▁chorus
▁granddaughter
▁fingerprint
▁Pal
▁MEP
▁wedge
▁stormed
▁Libyan
▁Pole
pay
▁quiz
▁vertical
▁Webb
▁Reddit
▁overlooking
▁fraudulent
▁0.8
▁educate
▁digging
sensitive
general
▁slams
▁inmate
▁Abraham
▁faithful
▁Tracy
▁Stories
▁tablets
First
▁(11
▁Rou
pez
▁cancers
▁slashed
▁Kur
▁interval
▁coffin
▁Blackburn
▁condemnation
▁insufficient
around
▁sexist
▁fruits
▁undertaken
▁Senegal
▁lure
▁undermined
▁offseason
▁2.0
▁http
▁Ng
agne
▁Gan
fast
▁defect
▁tweak
▁pint
tique
▁Choice
▁wicket
▁Product
▁cheered
▁Malaysian
▁algorithm
▁abruptly
max
▁influx
.10
▁flock
▁cartel
should
-1)
▁Screen
▁Share
▁locate
heim
lian
lane
▁Imp
▁VAR
▁urine
▁practically
▁reminds
▁ample
▁Word
▁unsuccessful
▁Past
400
▁Yemeni
▁pals
Bar
loc
▁handy
tour
▁freshman
▁burger
▁Dixon
▁qualifier
ssy
▁misery
▁bathrooms
▁graduates
▁Mol
▁intercepted
MB
▁Hit
built
erson
▁awake
▁coma
▁noon
▁Ground
inc
▁rooftop
▁enters
▁woods
▁Stro
▁arrivals
ranking
▁Puigdemont
▁Seahawks
▁gyda
▁2005.
ifi
▁Weekly
▁1963
▁legislators
▁emphasized
▁manifest
▁Champion
▁gallon
▁plight
▁Stamford
▁circus
▁Chargers
▁0.6
▁Novak
inning
▁traces
▁lowered
▁styled
▁Subs
▁consult
ulating
▁predicting
▁strained
▁suppress
iko
▁territories
▁refrain
▁teaches
▁axe
▁???
▁($2
▁magazines
▁staring
▁Fowler
▁LGBTQ
▁Rosie
▁idiot
▁assurances
quarters
▁2.2
▁Rest
▁Hardy
Lago
▁er
▁rack
▁thankful
▁dumb
▁Heidi
▁tuition
▁slaughter
▁fried
▁sexism
▁£25
▁Debbie
▁forefront
▁clinch
▁urgently
▁Eat
▁cue
rica
▁2004.
▁Beyonce
▁Rifle
▁Stirling
▁Ul
▁stretches
yon
▁interceptions
Are
▁dedication
▁Agriculture
▁evolve
▁colleges
▁pigs
▁bets
▁dug
▁colorful
hau
▁salon
▁GKN
▁loneliness
▁Sutton
▁carrot
▁Jefferson
ulate
health
▁Score
▁thieves
▁Sierra
▁lashed
▁Pad
▁hy
▁rains
▁Coming
Love
▁$40
▁Medal
▁replica
▁flurry
confidence
gest
▁messy
rc
UC
Fe
▁AG
▁Student
▁economically
1)
▁blur
▁Honda
▁stray
▁putt
▁Reg
▁slated
▁Inn
▁environments
▁Wong
▁(9
▁spectators
▁commentators
▁sympathetic
▁Mile
found
▁Finals
▁RBS
▁garbage
erra
▁Launch
▁semifinal
▁homeowners
▁Fletcher
focused
▁constituents
▁misuse
▁insulin
mari
▁canal
▁foil
▁candidacy
pir
▁Wy
chel
usa
▁restructuring
▁Bruyne
haus
▁Angus
▁classmates
▁Ras
▁wig
awaited
Big
▁appreciated
▁virtue
▁jab
FL
▁offerings
▁CP
▁straw
▁defeats
deeply
▁Kyrgios
▁Constable
▁interpret
▁compact
uer
▁Teen
500
▁reasonably
née
▁smiled
erie
▁commemorate
▁delegates
▁societies
Where
covered
▁resisted
▁Owens
▁tar
▁justices
▁McCartney
▁Resources
▁booming
operation
safe
▁honoured
▁£11
blood
▁Muhammad
▁slew
▁novelist
TM
▁rogue
▁console
▁gyn
▁Astros
▁abstract
▁Sergeant
▁domain
▁fulfill
▁cardiac
▁Code
current
aq
▁15,000
▁Retail
▁Conservation
God
▁Nice
▁300,000
▁jo
▁Regional
▁congestion
▁miserable
▁yelling
▁detainees
▁SO
▁provocative
▁Recep
▁actresses
▁parcel
▁Pine
▁banker
▁Previously
▁Damian
▁exceeded
▁Sexual
▁Dawson
▁privileged
▁Mean
orn
▁Kh
▁2002,
▁outdoors
▁Qua
▁Olivier
▁orientation
▁Ukip
motion
▁Cambodia
▁Ellie
▁bypass
posed
▁mewn
mill
▁shutting
cade
▁whistleblower
▁MAFS
elected
nci
ready
ICE
zier
holders
▁escalate
▁gar
▁Lesley
▁Due
Dr
▁Lavrov
▁Egg
oci
AG
linked
▁breastfeeding
▁settlements
▁unlock
▁Cramer
▁Nord
▁belly
▁beast
▁Bernstein
▁generic
▁oust
▁minus
bourne
spot
▁Zidane
▁AFC
▁functional
▁PAC
▁NOT
▁Collection
▁logistics
▁Bills
▁DOJ
▁delete
▁portraits
eurs
▁Celtics
▁McDougal
▁thriving
▁Bancroft
▁vigil
▁Dom
▁coordination
iau
▁ranch
▁Gwen
▁Boyle
▁childcare
▁darker
▁Arabic
▁streams
corn
▁stereotypes
▁Sevilla
▁persecution
thro
▁passports
▁lender
▁Associate
▁Rules
treat
mod
▁landlord
▁Gregory
▁Ship
▁settling
▁jewelry
▁flare
▁pathway
▁sailing
culture
▁deer
▁Blo
▁Buffett
▁Wiltshire
mount
▁filings
eous
▁blockade
▁(15
▁Auckland
▁Refugee
pressed
▁Hank
▁distracted
▁levy
▁cooling
▁tailored
▁PE
-17
▁Patel
▁trophies
iza
▁Bron
▁Know
▁Ariana
▁provoked
▁2.4
▁Ravens
▁pubs
▁jumps
▁quantum
▁125
▁calf
tory
▁sliding
▁invisible
odo
▁unfairly
▁Northeast
▁dislike
▁Bring
ood
▁mouse
BS
▁envelope
▁sunset
Ad
né
▁malicious
▁reproductive
▁tapped
▁glowing
▁Jade
cam
▁Than
print
▁tray
▁hospitality
▁unfolded
▁bloom
flu
GO
fact
▁Holdings
5%
▁Foods
▁Coventry
▁Mercury
▁cancellation
▁Speed
▁Heath
▁Gross
▁Jun
▁appropriately
▁possess
▁circulated
▁oversees
▁AB
▁cough
▁exotic
▁Cloud
▁portrayal
▁hints
▁Cindy
rog
▁math
▁broadcasting
▁protested
▁extends
▁Annie
▁1945
nde
▁2023
▁Richards
▁Albion
▁Ortega
▁tycoon
camp
▁Texans
▁coincidence
▁robbed
▁criticizing
▁Cinema
▁ruler
▁consists
▁adverts
gov
▁Romanian
▁Violence
▁catwalk
▁Zinke
▁Ji
▁descended
▁pitching
▁organize
▁Plant
fur
vine
▁containers
▁Male
▁horrified
▁Idaho
▁assumption
voir
▁Lea
▁Sil
▁stricter
▁stimulate
▁Fleetwood
rier
▁shortlist
ovich
▁Supporters
code
▁shrink
▁explosives
▁adolescent
▁confined
▁spoil
▁Wei
ées
▁Clippers
▁formidable
▁Spirit
▁Cohn
▁quirky
GMA
▁Blanc
▁wool
▁Papadopoulos
▁Sutherland
▁concludes
▁Rhodes
▁unfold
▁creators
▁debuted
▁Flor
▁spree
▁Besides
▁Ramsey
▁$18
▁Drag
▁Rudy
section
▁graduation
▁remorse
▁Draft
▁McKe
▁salute
▁hardship
▁insults
▁rooted
keeping
▁Dolphins
▁adamant
▁slash
uli
▁rev
▁Sie
▁Allison
plane
▁boo
▁cuisine
▁respiratory
▁BO
▁packing
▁Miguel
▁bids
▁branding
▁Nato
▁Hugo
▁diary
▁Days
▁vacant
▁Doyle
▁altercation
▁CD
▁waking
▁liberals
▁revel
▁Mut
▁indefinitely
▁melt
hunt
▁Vin
▁Professional
▁Worboys
▁immunity
▁39-
▁PD
RP
▁Maggie
shop
▁adhere
▁mag
▁Comedy
ND
▁flush
▁Omar
▁responds
▁Mobile
▁Madonna
▁Colbert
▁Economics
CL
dded
borne
▁(18
▁crises
▁Torres
▁candy
FS
▁priests
▁16.
▁Frost
▁Kudlow
▁reconciliation
▁bleak
▁escort
LY
▁spies
bear
▁spells
▁Alonso
▁blossom
▁proposing
▁45,
▁bowel
▁Toby
▁unrelated
pour
▁administrators
▁biography
▁Lawyers
▁BR
▁grabbing
▁attractions
▁advising
▁polite
▁bore
▁pea
▁Devin
▁1948
▁astronauts
▁metro
ddi
▁disgraced
▁inspections
▁Affordable
▁gasoline
▁objections
▁ya
▁Beyoncé
▁manipulation
▁Donnelly
▁Orthodox
▁trolls
▁Gang
▁cro
▁negotiators
▁defining
▁subsidiary
▁proposition
▁duration
▁boil
▁flats
▁lodged
ppy
▁align
nger
▁diets
▁relaxing
▁tsp
▁plaque
▁Nou
jet
▁gunfire
▁Cow
vil
▁personalities
▁Safe
personal
▁Copenhagen
▁Luka
▁fy
▁consist
▁NW
PD
▁predictable
▁allied
dou
▁essence
▁civic
▁Evening
Li
▁demon
iki
trip
▁Scho
▁Gala
▁flavor
▁Frankfurt
▁Nuclear
▁cows
▁parental
▁Motherwell
▁Dodd
etz
▁Letter
▁tomatoes
▁incorporate
Gu
▁flame
▁disagreed
VI
▁mimic
▁crypto
▁Brooke
▁distressed
played
▁1965
▁summoned
nothing
▁cosmetic
▁selective
▁IMF
loo
▁1920
him
▁2-2
▁Whi
▁Fitzgerald
▁provincial
▁mixing
▁Raymond
▁rockets
▁Obamacare
family
White
▁strains
▁Aubameyang
▁Pearson
▁$1.3
▁Geelong
itive
▁dictate
▁Moor
▁chatting
▁futures
▁undergone
▁drank
▁clearer
▁slumped
▁qua
▁Rein
▁biology
▁hypo
▁42-
▁millionaire
zh
▁Firefighters
▁cu
logical
▁flagged
▁Christina
▁resting
money
▁whatsoever
▁grounded
▁Oz
ugg
▁boast
▁ace
▁Flint
▁hallway
▁reunite
▁Papa
▁FI
▁cooler
▁Bit
▁seizures
imo
seven
▁predecessors
▁SOURCE
▁resilient
▁clay
▁cynical
▁feast
condition
▁paths
▁Scotsman
DP
▁collectively
▁edges
▁rounded
▁Property
▁Saunders
▁procession
leader
▁Count
▁forgive
▁depicted
▁Economist
▁McLaren
▁meditation
▁$300
▁angered
terrorism
▁knit
▁Hannity
▁McGrath
▁elevator
▁expedition
▁magistrate
▁blows
▁punching
▁festivals
▁Dub
Time
tree
nnie
▁inspect
▁Soul
▁consulted
▁collaborator
▁seafood
▁Walking
▁soundtrack
mur
▁tribe
▁Starr
▁Weir
lough
TR
▁Province
▁mitigate
hip
pool
writing
▁drunken
▁Kre
▁generating
▁tales
▁Tusk
▁makeshift
▁Raw
storm
version
duct
▁Strzok
▁unravel
▁uncover
▁Tap
▁Hampden
▁bombshell
▁accordance
▁Farrow
UR
▁Whitehall
▁deprived
▁Snap
▁MSP
▁las
▁frightening
eni
▁disturbance
pie
▁Appeal
film
▁housed
▁IN
▁Clarkson
▁manufactured
▁assuming
▁discomfort
▁Hadid
▁accelerated
▁claw
▁renewal
▁Willie
▁cultures
▁faculty
▁Rupert
▁infectious
▁voluntarily
▁Vietnamese
▁Crow
▁spared
enter
▁lu
▁grind
▁binding
▁enrolled
▁liar
▁pretending
▁Beatles
▁blueprint
▁strictly
▁Tele
▁combining
▁judging
▁entity
▁modified
▁tightening
▁opting
▁Molly
▁trailing
▁Jonas
▁consuming
kra
▁census
▁MVP
▁triggering
▁Piers
▁dense
▁hid
▁safeguard
▁tit
▁dissident
▁therapies
▁NO
▁corridor
▁Whole
▁criticise
▁Wan
uka
▁loads
▁Tribune
▁psychiatrist
▁Either
▁sacks
Right
▁revisit
▁exams
IO
▁departing
Once
▁carmaker
▁Kilmarnock
▁altitude
▁Ricky
▁journeys
▁tighten
▁fuelled
▁cocktails
▁Courtesy
▁unhealthy
▁defeating
bomb
scription
▁fares
▁rocky
coloured
▁checkpoint
lish
▁seller
▁Highlands
▁republic
▁Friend
▁accidental
▁spoon
▁Growth
oso
▁curling
▁lag
▁whopping
▁dipped
▁enacted
chenko
moving
▁Mira
League
▁gen
▁Dreamers
▁tab
▁suicidal
▁determining
centre
Life
▁Honor
▁dial
vac
▁Extra
▁Quick
▁Scar
▁Nebraska
▁Superintendent
▁fundraiser
▁conscience
▁Faith
needed
▁bur
▁43,
▁Furthermore
▁Kieran
UT
invest
▁Hut
▁Lambert
3)
▁Kai
chair
▁collided
ior
▁Alibaba
▁Bieber
▁Cynthia
▁Concern
▁8,000
▁mines
strom
lived
border
▁Pac
▁Berkeley
▁Merseyside
▁Engineering
▁leaf
▁SPD
▁whisk
▁Prov
▁2,500
▁paedophile
▁Ask
▁rainbow
▁meta
▁gi
frame
pr
▁Driver
▁viruses
▁severity
▁accomplish
▁Venus
▁burnt
▁Dems
▁cracking
▁rebuilding
▁vein
▁Jobs
▁Paula
▁escorted
▁prototype
cz
cover
▁USS
tner
▁Joanna
▁Tinder
▁Gate
▁associations
▁Questions
▁Rey
▁mit
▁Cubs
▁AD
▁fiber
▁Select
▁shipped
▁apr
▁111
▁Certainly
▁amend
▁Sadly
zed
▁$70
grave
▁sanction
▁cathedral
▁timber
▁Institution
▁referral
mming
▁Ruby
▁pools
▁ou
bby
▁translation
▁undertake
▁measurements
▁beats
Am
▁Wheeler
duction
▁MD
▁tighter
▁manufacture
▁Gaga
▁Hun
natural
▁NAFTA
▁cemetery
▁Richie
▁Limited
▁promptly
shirts
▁exemption
▁molecular
▁Gerald
▁continually
ops
▁youthful
▁Origin
ologists
▁McK
▁incomes
▁resistant
▁toilets
▁predicts
▁closet
▁evade
▁staffer
▁tying
▁headache
▁activated
▁concealed
▁Honey
▁rethink
oke
▁Wray
▁sci
▁Hawkins
▁taunt
▁organizing
▁drift
▁7,000
▁bent
dder
▁repay
▁martial
▁peanut
▁Playboy
▁41-
▁Personal
▁Source
roma
▁Lawson
▁abnormal
▁murderer
▁Pablo
▁sustainability
").
▁disc
▁Payne
▁HQ
nen
HR
▁Jac
▁Versace
▁Universe
▁Luckily
▁exert
▁deadlock
▁HR
vious
▁Katherine
▁Rihanna
▁swell
▁Editor
▁soften
dec
▁nursery
▁fog
▁demise
▁stats
▁sinking
bou
▁Pie
pose
▁41,
▁laundry
▁Generation
▁needle
▁Rolling
▁keys
gla
▁tumble
▁cybersecurity
▁dictatorship
udi
fest
▁algorithms
▁Solo
▁£14
▁DO
▁Production
▁Hodgson
▁embedded
rge
claim
▁wanna
▁Upon
▁battlefield
▁tastes
3%
▁Performance
FM
▁capitalism
▁Morton
▁tunnels
▁Chance
▁30%
▁stubborn
▁hydrogen
▁GPs
▁Malta
▁criticize
▁commerce
▁concession
▁avert
▁TD
▁bravery
▁jar
▁fairness
▁downward
▁Stage
▁dynamics
▁GoFundMe
▁defamation
▁coincide
▁floated
▁kin
▁kits
clock
▁accountant
▁Spider
▁Frederick
▁Pic
witch
▁perfection
▁sliced
▁46,
▁UKIP
▁Dane
▁Paddy
▁barrage
▁diagnose
▁statewide
▁policymakers
▁Original
▁bass
▁successes
▁devolved
▁grieving
rab
▁Fourth
▁belongings
▁mon
▁coupled
lva
!!!
▁sour
▁Cyprus
▁intimidation
▁cherry
▁Bolt
▁500,000
▁Already
▁offended
▁Hawks
▁sidewalk
▁predators
SO
9,900
Muslim
▁Traffic
▁revolt
▁slipping
▁intervened
▁1962
▁WH
▁translate
▁eased
▁timely
Maybe
▁Walton
▁crosses
▁confess
Although
▁sponsorship
▁Gau
acle
▁extremism
▁wheat
zon
▁metric
Su
▁Py
▁wholly
▁crawl
▁hush
unconstitutional
▁Boss
ssen
▁reigning
clad
▁midway
▁rejects
▁adjacent
▁variable
ury
▁crowned
▁Emery
▁rash
▁Lost
▁pillar
▁Witnesses
clo
▁Sheikh
▁bon
lob
9,
performing
▁Greitens
▁sleeves
▁Stones
▁har
liance
scape
▁bury
▁compounds
▁playful
▁signaled
▁2.8
▁Wedding
▁pharmacy
▁leur
▁thrill
▁Expect
▁brew
▁weekends
▁dull
▁doorstep
▁Protesters
▁reset
▁EP
▁brutally
▁waved
▁Nasa
▁Mickelson
▁cracks
▁stationed
▁rents
ALL
Her
▁powerhouse
▁Adding
certain
▁circulation
▁intensified
▁garnered
nov
▁advertised
▁firefighter
cc
▁mistaken
cie
▁Kick
▁ein
cream
▁Redskins
▁hiking
▁quitting
▁BP
▁vendors
▁devil
▁Vision
laden
ature
nig
▁primaries
▁Leonardo
▁recreate
▁Cairo
firm
▁trek
▁planets
▁SP
▁miscarriage
▁assessing
▁inconsistent
▁Jer
▁nut
▁recipient
ador
pil
▁Higher
etic
▁IVF
▁Fun
▁pest
▁gag
▁computing
▁Dorset
▁unified
▁comm
▁Sala
▁replicate
language
▁dilemma
▁illustration
▁slender
▁mins
▁pairing
▁plastics
▁soar
▁Mara
▁dentist
▁proximity
▁Byrne
▁downhill
▁lately
▁Protect
▁Fortnite
▁Canterbury
▁Clooney
▁stellar
▁flashed
getting
▁Shape
▁Kid
hag
▁Sophia
▁CS
staff
▁190
▁defends
▁puppet
▁revived
▁interventions
▁Ozil
pathy
▁commenting
▁clan
▁nicely
▁initiated
▁genocide
▁dispatched
▁cheeky
▁distribute
▁hum
▁prolific
corruption
▁cloth
▁Hamburg
▁betrayal
▁tributes
▁25%
▁Jacobs
▁populated
▁aspiring
▁overly
▁chilli
▁2.7
▁vegetarian
▁aggregate
▁juvenile
▁Zhang
▁Customers
▁trendy
▁justification
▁recruits
facing
▁fuss
▁trusts
hailing
▁licensing
▁culprit
▁$1,000
▁blazer
▁rats
▁Jos
▁coached
▁Hans
value
▁Patients
perform
▁2018;
▁blatant
lei
▁Socialist
▁impending
▁echo
▁Solar
▁Toni
▁holy
▁TO
▁grabs
▁Aguero
▁devastation
▁legitimacy
ulu
▁swamp
▁Terri
▁damning
▁stoppage
▁persona
▁Clement
▁Indigenous
cic
▁vaccines
▁uncommon
mortem
▁flirt
Ch
▁ECB
fee
▁2016-17
▁Bake
rious
uda
Wow
▁vivid
▁Soccer
Those
▁downturn
mg
▁Rising
▁execute
▁Tate
anne
▁ddi
▁planner
▁nhw
▁Freddie
gren
▁bacon
▁committees
▁Levi
▁Dogs
▁objectives
▁Kurds
▁tackled
▁deposits
esque
▁editors
▁bob
ridden
▁amounted
▁RO
roo
▁Cop
▁shoots
sbury
Col
▁defiant
▁maritime
▁exporter
▁Petro
wheel
▁mourning
▁Comic
▁Range
▁supplements
▁Houthi
pipe
▁trajectory
▁savage
▁Ox
▁admired
▁daylight
▁Merc
▁towel
▁reconstruction
▁Hil
▁Flu
▁infants
▁Brain
▁prediction
▁Clinic
amba
▁translated
▁pledges
▁Celsius
▁Buenos
▁£13
▁retrieve
▁Ashton
▁Roosevelt
▁Kuwait
▁hinder
▁tattoos
▁cornerback
▁precede
▁towers
▁shrinking
▁sometime
▁incorrect
▁Blu
▁Bak
▁dealings
▁inaccurate
enne
fun
▁monkey
▁Rashford
egan
▁90-
▁technician
▁Ei
▁Wool
▁Cir
▁Ghana
▁Join
secret
▁Listen
▁homer
mental
▁fulfil
▁Que
▁Deborah
▁Gucci
▁Aires
▁Bran
▁Shepherd
kha
▁favorable
▁varying
▁discharge
▁doses
▁Hag
▁similarities
rna
▁Books
▁Wilkinson
▁grams
▁traced
▁strengthened
▁Pearl
▁£200
▁Cass
▁offending
ndra
▁protagonist
▁dividends
otic
▁TB
▁Holden
actic
▁Lebanese
▁Circle
▁policeman
▁Motors
▁disruptive
▁coloured
▁Sche
▁Gru
▁MTV
▁Category
▁anticipation
▁Lodge
▁upgraded
▁2003.
▁headaches
lying
▁batsman
▁ka
FR
▁gum
▁velvet
▁leggings
▁fixing
▁satisfying
▁Gus
▁47,
▁Crisis
▁federation
▁Female
▁seizure
nard
▁Notre
▁feeds
▁Kind
▁Fine
▁Lev
nett
▁Stalin
hom
▁Dembele
▁shaping
▁um
▁hype
▁Clayton
▁notoriously
▁realm
▁Fife
▁distinguish
▁Standing
PE
▁commodity
▁curtail
▁chop
rag
.00
▁Pon
▁cal
▁uprising
▁confronting
series
▁Suffolk
▁Bahrain
▁impulse
▁Clyde
▁expectancy
quel
▁fearing
▁Durant
smith
▁Daw
▁nutrients
!)
▁debated
▁contradict
completely
▁Cool
▁Corker
▁propel
hil
▁Timberlake
▁foam
▁downside
▁dental
former
▁detain
▁Tristan
▁Corn
▁Scout
▁miners
▁hurdles
▁hormones
▁crocodile
▁embroiled
▁merchant
▁bum
▁variant
▁Solomon
▁Zone
▁carved
add
▁acknowledges
▁Branch
▁Apart
▁Asda
▁scout
▁1,200
▁UEFA
▁saddened
▁imaging
▁marvel
▁equaliser
▁Lightning
▁Fit
▁Joey
▁Talent
▁handles
OU
▁Bir
▁Starting
lack
▁therapeutic
▁gossip
Since
▁inflict
▁Were
your
▁simulation
▁repeating
▁wreckage
▁temp
▁Halep
▁Standards
▁Hancock
strict
▁Lucia
▁satisfy
▁Aldi
▁assert
bour
▁Devils
▁bidder
▁Cummings
▁starters
▁frontier
▁Bash
▁readily
▁100-
moral
▁Barton
▁Fortunately
▁vomiting
liner
▁lingerie
▁decree
▁rib
▁metals
▁fri
isha
▁abundance
▁telescope
▁energetic
▁swimsuit
▁ancestors
▁mesh
▁Track
▁aspirations
▁Sadiq
▁thug
sponsored
▁punt
▁Hastings
▁Irving
▁Section
gree
onne
▁limp
▁compensate
▁certified
▁upbeat
▁sibling
▁machinery
▁IRA
▁elimination
▁gauge
▁geopolitical
▁Hoffman
▁Til
▁swear
▁Ske
▁obliged
▁midday
IE
▁accuser
▁leaking
▁magnet
▁5.5
▁Spo
▁publishers
▁automotive
▁Qantas
served
▁Pun
▁relay
nin
duty
▁Slovakia
glia
▁STEPHANOPOULOS
▁truce
▁await
▁Marx
▁forged
▁Bulls
▁hooked
▁2001.
▁psycho
zie
▁uniforms
▁fifty
▁commence
▁shores
▁reap
▁disgrace
▁brutality
▁Lone
▁assumptions
▁abortions
rb
▁maneuver
▁bloke
▁derail
▁possessing
▁McCo
▁bolt
▁sunlight
▁Denise
winner
street
▁Kel
▁Paralympic
▁destined
▁YPG
▁dragging
▁masterpiece
Please
expected
▁Flower
▁maiden
▁forgot
▁Maya
▁Cliff
every
▁Reese
▁tomato
▁drowned
▁advantages
▁caucus
▁navigation
▁salvage
▁theatrical
▁Porto
▁lowering
▁Gillum
raz
▁Guild
▁Olympian
▁Chambers
▁Dell
ket
▁Brewers
▁mattress
▁Cheshire
▁thunder
▁scream
▁Manu
▁hoop
,900
▁interpreted
▁Cousins
▁guardian
▁Perfect
▁grooming
rose
▁Sens
valu
Fox
▁2.3
▁capturing
▁appliances
▁Eagle
▁Ridge
▁Railway
▁Nam
▁slopes
pens
▁withdrawing
ural
▁bees
▁cholesterol
▁frightened
▁outburst
▁preach
▁Elaine
▁idol
▁workshop
FO
economic
▁Unless
▁bunker
▁Owner
▁demonstrating
▁galaxy
▁Charter
▁whereabouts
Fin
▁ref
Wi
▁tomb
glass
▁misinformation
child
▁Hero
▁visibility
▁Norton
▁footballers
▁obstacle
▁Lisbon
▁Delaware
▁contamination
tolerance
▁embarked
▁sufficiently
▁LE
£
▁fade
▁Appeals
ronic
▁billed
mour
▁Type
Here
▁territorial
▁sniff
▁Pont
▁explosions
vé
▁weighs
Ed
▁Fle
▁linger
▁tossed
▁promotional
▁gentleman
▁refreshing
▁Noble
▁organise
▁servant
▁Guinness
▁Malibu
▁discourse
▁heartbroken
▁offspring
▁reduces
▁Therefore
▁attach
▁Milo
▁royals
▁cheapest
▁allocated
▁faded
▁Fly
▁characterized
uh
rez
▁unanimously
cine
▁Ent
▁stockpile
▁limbs
▁honesty
▁lacks
▁progression
tale
▁Midwest
▁48-
kon
▁expired
▁Chilean
▁censor
▁Tijuana
script
▁standout
▁McCann
▁($
▁governors
genic
▁boarded
▁progressed
▁brass
lem
▁Coca
▁neu
▁Fry
▁gala
0%
▁labeled
▁Budapest
▁acquitted
aga
large
▁SC
▁surfaces
alo
▁dent
quest
▁Marina
zone
2.5
▁insurer
catching
▁adopting
▁anytime
▁phenomenal
▁puck
inder
▁catalyst
▁havoc
▁pistol
▁honeymoon
▁Latvia
oriented
▁applauded
MG
▁eliminating
▁reversal
▁instability
reach
▁bits
girlfriend
▁wines
▁Underwood
▁expire
▁cater
▁Stefan
▁coveted
▁hoax
▁pageant
▁VW
▁Buddhist
▁reminiscent
▁captive
▁founders
▁Passengers
▁devote
▁Imperial
▁Sharks
▁Paisley
▁systemic
WA
▁affiliated
▁specify
▁Thus
▁Etihad
▁enzyme
▁staunch
▁indicator
▁Winner
▁2000.
▁Roland
▁Marseille
▁Pala
▁fatalities
▁dreamed
▁Nina
iger
▁Lula
▁Af
▁Gul
▁shiny
▁politic
▁12,000
.05
▁heights
▁IPO
▁Briton
specific
iro
photo
▁prevail
Ru
▁Detectives
▁evolving
▁Gunn
crib
AI
▁gases
Korean
▁onion
▁Cheltenham
▁stirring
pec
taining
▁Laurie
▁holder
connected
▁Marathon
▁advocating
▁Prague
▁pressured
serve
▁specially
▁CV
▁constructive
▁projections
▁Gregor
▁crater
▁bully
prim
UE
▁rejecting
▁fiercely
mé
▁storyline
▁interrogation
▁Breakfast
▁sacred
though
▁diminished
▁stronghold
▁25,000
▁meter
▁Gibraltar
▁Patterson
▁gestures
▁Sak
▁$130,000
▁Push
▁separatist
▁lively
▁1999,
▁kilo
▁5%
moor
▁SI
▁elusive
▁graffiti
▁volley
▁Zaha
▁unwilling
▁Fifty
▁RSPCA
▁Mumbai
PG
▁0-0
▁Sergey
▁Tucker
▁spying
rance
▁manipulate
▁fizz
▁Especially
▁Strasbourg
▁HSBC
▁Plastic
▁rubble
hm
por
▁administered
tten
▁deport
▁Photos
▁mint
Min
▁pneumonia
uel
tent
▁WTO
▁horn
▁Iranians
▁Borders
▁Mine
▁blink
▁cheerleader
▁alternate
▁snowfall
▁facto
▁spinning
▁upward
▁displaying
BL
owitz
▁fend
▁voucher
▁oversaw
▁recounted
▁Killer
▁Cardinal
▁Dele
▁obtaining
▁singled
▁eBay
▁Sherman
▁foundations
ience
SF
▁£500
▁fumble
▁Infinity
▁whisky
▁Shot
▁Mala
▁meltdown
▁remotely
▁pairs
▁homemade
▁Figures
uan
▁105
▁birdies
▁municipal
▁tyres
▁scarf
▁Apprentice
▁entries
▁punches
▁jackets
azi
soft
▁Harold
women
avier
▁Mona
▁wolf
▁fel
▁Ballet
runner
director
dling
▁affidavit
▁curse
▁comb
El
▁Branson
▁comparisons
▁Aside
▁IP
Va
▁Carney
▁4-3
▁Conduct
▁fireplace
▁controller
ONE
▁Schwartz
issue
▁Ella
▁pencil
▁boundary
som
▁kissed
▁chanting
World
▁spider
▁Kru
▁gro
▁Rolls
▁curriculum
▁$80
▁Moonves
▁Cable
▁cheers
▁strive
▁hood
▁Antarctica
▁ribbon
▁Dragon
▁supervision
▁Dragons
▁surpass
▁printing
▁favoured
▁Sunshine
▁erratic
▁antisemitism
▁Form
▁WR
▁quoting
▁Actually
▁Edge
written
▁biologist
▁topping
▁scramble
▁deepest
▁diverted
▁grin
▁Mit
▁sprinkle
▁invention
▁Spieth
▁Fallon
▁Sul
▁Milton
-14
▁inventory
▁grades
▁compares
▁Mane
▁doubling
▁Durbin
▁Similar
▁Blackpool
▁1961
▁Cock
▁interactive
▁NE
existing
stress
▁sq
▁strokes
▁pap
blue
Men
HI
▁Bain
▁binge
▁monitors
▁Seg
▁Archbishop
▁passive
▁dismantle
▁grenade
▁critique
▁Always
▁Rican
▁antitrust
▁Boo
▁nails
▁yng
▁dangerously
▁revolve
▁nanny
▁Constand
▁scrub
▁Somalia
▁£16
▁Cherry
lah
▁Def
▁Nikolas
▁Leading
▁glossy
▁coordinate
▁Livingston
▁balloons
▁Dowd
▁Bercow
▁Mirren
▁tre
mere
▁$1.1
▁exceeding
▁lifts
▁2021.
▁Shirley
lib
▁walkout
▁teased
▁fiance
▁proactive
▁Kidman
anta
▁Serie
▁ribs
eil
▁renting
▁selfish
▁accepts
▁catalogue
▁continuous
▁Mayweather
lect
▁Lum
▁(£3
▁analyze
▁explode
▁Kun
▁portions
icious
move
▁disposable
▁fraught
▁Ontario
▁Above
▁Holl
block
▁Estonia
▁doomed
▁integral
▁Rivera
ENT
therapy
▁unleashed
tight
bli
▁Cory
eater
▁complexion
▁symptom
▁Toro
▁Lam
▁scholars
▁lingering
▁galleries
▁rendition
▁Really
▁Cai
works
shed
▁accusers
▁Alba
▁Cad
▁tanker
▁Lithuania
▁surrogate
▁ram
▁towering
▁bankers
▁instrumental
▁2.1
▁pine
▁penal
▁Damon
▁piled
▁driveway
▁Floyd
▁motorbike
▁fearful
?""
gni
▁Spark
ddling
▁bishops
GH
▁Knicks
▁rout
▁minimise
Mad
▁Aber
▁leftist
omo
▁females
▁emerges
▁Santiago
▁pinpoint
▁Peak
raising
▁codes
▁Teachers
▁haunt
▁Goodman
.4%
▁rift
▁needles
▁unleash
rub
▁plotting
ania
▁sings
▁feminism
▁unpleasant
▁protester
mut
▁flop
peak
▁Chau
bies
▁Watt
▁Rwanda
▁abolish
gee
▁listeners
▁golfer
▁exercising
▁Democracy
▁sanctioned
▁plaintiffs
▁Cotton
▁applaud
due
gender
▁homework
▁conglomerate
▁architectural
▁Machine
▁cereal
▁Jaguar
▁Casa
lau
▁MSNBC
▁ceremonies
▁looms
▁Gigi
▁mound
▁Louisville
▁SH
▁Ministers
radi
▁gubernatorial
sport
▁Gea
▁Daly
▁Marines
▁gymnast
▁netted
▁wax
▁understandable
▁Tourism
▁insane
▁400,000
▁cam
▁humiliation
▁quantity
▁Acosta
▁dishonest
▁Laboratory
▁promotes
MT
▁Nad
croft
▁surroundings
fuel
▁Arc
▁Jewel
▁Alcohol
▁cries
▁52,
▁scars
▁borrowed
▁rust
Obviously
▁encouragement
▁circulating
▁dwarf
▁Mackay
ugh
rma
▁Emb
▁1953
▁Talking
▁composite
▁enquiries
▁freight
speaking
▁Judy
▁premise
grand
▁£10,000
▁metre
▁scoop
▁requesting
Sometimes
▁Derry
▁MRI
logist
jpg
▁Neal
▁49,
▁swelling
▁Bowie
▁ruins
▁halls
▁melting
ERS
▁Rae
▁overseen
▁splitting
▁irresponsible
▁shit
▁diver
rac
▁File
▁Vel
▁quad
▁conquer
▁Brexiteer
▁Sum
▁engulfed
▁bot
▁desired
▁999
▁Jasmine
▁Garrett
lost
▁Electronic
udging
▁upsetting
plant
lecommunications
▁warrants
▁Lim
▁excluding
▁Stream
▁Abdullah
▁autopsy
inski
▁Otherwise
▁choir
▁faux
▁Anglo
▁shuttle
MR
rak
▁logical
para
"?
▁neat
▁whi
▁speculated
▁speculate
umi
▁Avengers
haired
▁fiancee
▁harrowing
▁imbalance
▁Opening
FB
▁manifesto
▁Kro
▁Independence
▁Strategy
▁merchandise
▁articulate
/18
▁prank
▁hurts
▁squeezed
▁empower
heavy
▁Woody
aunt
▁51,
▁Kendrick
▁espionage
▁junction
▁52-
▁reductions
▁depicting
▁Claim
▁glitter
▁$50,000
▁straws
rain
▁(13
lik
▁Lingard
▁Childhood
▁Voters
▁variation
▁gall
▁restraining
▁bargaining
▁earthquakes
lique
▁Rhode
cci
▁Caucus
▁JPMorgan
▁Palestine
▁avalanche
▁scrambling
▁turbulent
▁nun
▁unofficial
▁Lies
▁dread
▁pins
▁Chanel
▁failings
CT
▁advocated
▁Hawthorn
▁Spielberg
▁cyclone
▁finely
▁absorbed
▁prescriptions
▁Falls
▁transforming
▁£60
rium
▁flawless
▁Petr
▁provocation
iation
▁exceptionally
▁emphasize
▁Pel
▁naive
▁predator
▁chick
▁injunction
nock
hero
▁freelance
MD
▁Carlson
▁sparks
patient
▁strand
▁malfunction
huge
uto
pick
▁£1,000
▁keyboard
▁visibly
▁punk
▁alarmed
▁conductor
▁2.6
clar
▁weakening
▁Nolan
▁Berlusconi
▁Construction
▁$1.6
▁Running
▁1918
Mc
bay
▁quantities
▁undisclosed
inson
▁echoes
▁Bright
▁scrambled
▁astronaut
▁weed
▁qualifications
▁rematch
PM
clean
▁cleaned
▁demo
▁drowning
▁placement
▁ministerial
▁reliance
pea
00)
▁Rowe
giving
▁Abdel
▁Brumbies
▁liberty
▁restoring
▁foolish
▁brilliantly
▁NFC
▁startling
▁roller
trust
▁blames
▁Variety
▁daunting
▁Streep
▁alcoholic
▁Risk
▁sch
▁livestock
▁Calvin
▁rallying
▁slaves
▁adventures
▁mammals
▁termination
▁centrist
▁Hub
▁premiership
▁Hau
▁plummet
posing
PRNewswire
▁Barkley
▁Coffee
▁Kourtney
▁Sajid
▁practise
▁mould
▁Baseball
▁hunters
▁baked
stan
▁Charity
▁Gunners
▁SAN
▁integrate
▁billboard
▁punishing
▁Lawmakers
▁pensioner
▁contests
▁Protest
▁preferences
▁exceptions
▁steward
▁escaping
▁glacier
depressant
wire
▁begging
EF
▁chambers
▁bombings
▁fox
respect
agan
▁(14
▁Weapons
▁inclined
▁cheque
▁yelled
▁Tex
▁bells
▁Jorge
.2%
▁antibiotic
▁53,
▁supermodel
▁Nas
▁Houthis
▁undertaking
▁360
▁Hind
▁Meadows
▁flavours
▁discredit
▁bind
.35
▁medics
gross
▁disinformation
▁maths
.3%
riot
▁processor
▁inflammatory
/11
▁GO
hou
▁intricate
▁divert
▁loophole
▁stakeholders
▁Willis
▁Pepper
▁greeting
▁lieutenant
▁annoying
▁Firmino
▁tumbled
gio
▁calculate
▁Hus
astic
▁Bengals
▁Hair
▁retaliatory
▁summary
▁headphones
▁seaside
▁marginal
▁builds
close
▁wield
▁1%
Everything
▁Demi
▁backers
▁bankrupt
▁protects
▁spurred
▁stain
▁unanimous
▁clad
▁alerts
▁Initially
cture
odi
educated
▁lions
▁Senators
fod
▁Vest
rule
▁raging
▁Hawke
▁explores
▁sont
false
▁Nonetheless
area
▁testament
▁multinational
spec
▁Olive
▁jointly
▁Switch
Never
▁Tonya
▁namely
▁underdog
▁drastic
▁secular
LC
▁likened
▁addicted
▁reservations
▁Slater
▁tenth
science
▁5-0
▁slo
▁Pearce
▁Lothian
Bra
▁rampant
▁workshops
▁Mata
dian
▁Syn
▁swarm
▁assassin
▁directive
▁grapple
inated
▁remembering
▁councillors
usse
▁corpse
lux
Claude
LI
▁convoy
▁pinned
▁crab
▁indoors
▁individually
Make
▁fr
▁expressions
▁animation
▁Cilic
▁£40
▁risked
▁brushed
▁FCA
cigarettes
▁Saracens
▁patches
▁Ipswich
▁Migrant
▁Rodrigo
▁autonomy
▁culinary
▁tout
acious
wich
▁sham
▁GA
▁implants
▁courthouse
▁Harding
▁Ginsburg
▁1998,
▁veil
▁Dustin
▁Hur
hod
Three
augh
▁sickness
▁Rachael
▁terribly
▁blush
▁mor
▁hurdle
▁excuses
▁Fab
▁almond
▁FM
▁sensor
fol
▁Commander
▁surgeons
▁Zara
▁2002.
▁Benitez
▁Competition
▁Economy
▁exterior
▁nitrogen
▁Levein
▁Scarlets
▁staffing
▁snapshot
▁dogged
▁utiliz
▁combines
dorf
important
▁tampering
▁squirrel
▁lettuce
▁allergy
▁unarmed
▁surprises
lined
▁gushed
coat
▁casually
jin
▁Scarlett
▁censorship
▁shale
▁SM
carbon
▁Nikola
▁originated
▁Trains
▁practitioner
▁nevertheless
▁unemployed
▁balancing
▁Interest
titut
▁administer
▁$35
▁disadvantage
▁retaliate
▁Sep
▁automakers
▁Jupiter
ffin
▁Napoli
▁Fight
▁dodge
▁interception
▁loudly
▁disadvantaged
▁hoodie
▁Israelis
jur
▁Lancaster
▁blunder
ANG
▁sunk
▁Bil
▁Howe
kle
▁wonders
▁earnest
▁Thorn
Work
SD
▁glittering
balance
▁militias
▁scathing
▁Fai
▁dart
▁(16
cause
▁solving
done
▁CT
▁Hussein
▁Citizens
▁Balkan
▁tempted
▁mutations
▁Gibb
▁Gin
▁Weight
▁sideline
▁Weekend
qué
▁sculptures
toe
▁cakes
▁frenzy
▁susceptible
▁FEMAIL
setting
Like
pointer
▁44-
Last
▁170
▁Won
▁Garner
File
agin
▁summon
▁swinging
▁barn
rom
▁tribes
▁McGahn
▁distributor
▁excellence
▁Derbyshire
▁rampage
▁Malik
Cl
▁Capt
▁Johnstone
▁Alps
▁milli
▁repayment
▁arson
▁homage
vest
▁medallist
▁Operations
lina
▁80%
struction
▁Baptist
▁Bengaluru
▁Strategic
▁penny
group
▁Zan
quer
uba
▁geo
▁frost
▁Rag
▁Keys
▁Mercer
NN
FT
zzy
gua
▁packs
▁Coco
▁continuously
▁cancellations
▁Raptors
▁60,000
▁stems
▁Creative
▁Brunson
▁NA
▁Mariners
▁pipes
▁AfD
▁physicians
▁Welcome
criminal
nuclear
RT
▁Kristen
signed
▁pioneering
BU
▁reinforced
▁improperly
ota
▁analytics
▁eccentric
▁fentanyl
▁verified
▁Fifa
▁DHS
▁Rhys
▁refresh
▁Vu
rew
▁Meeting
▁Myers
▁poignant
think
itu
▁smashing
▁Cave
▁lads
▁Vanity
▁1800
ete
▁Fitz
hee
▁biased
▁possessions
ija
▁prints
▁inhabitants
▁Couple
▁picnic
▁Cove
▁Cou
▁Gel
▁prep
▁Responding
▁Meg
▁fetch
▁stumbled
▁Regulation
▁Rashid
▁Describ
▁Beer
▁ascend
▁Multiple
▁Surf
▁Referee
▁caffeine
▁compulsory
LT
▁Konta
father
▁landfall
▁borrowers
▁twisted
tron
Paul
pher
▁bored
phil
▁Orchestra
▁atrocities
▁prominence
▁thunderstorm
▁Elliot
▁Conner
▁Nut
▁frank
▁Thirty
▁Flood
▁Dijk
lake
▁TE
▁accompany
▁Sham
▁Archive
Cha
▁genetically
▁Table
▁participant
ige
▁PyeongChang
▁thief
choice
▁Ahmad
bru
mili
▁derived
lander
ption
▁crushing
▁Borussia
▁Bourdain
▁playwright
▁realities
▁Poli
▁Betty
▁Jenna
▁prizes
▁Butina
▁objected
▁texted
▁backstage
▁deduction
cour
▁acquisitions
▁menopause
▁Trophy
▁Thur
▁leagues
▁lament
▁cling
▁filmmakers
▁Counter
▁dazzling
▁UCLA
▁Clarence
▁hitter
ppel
fitting
▁neglected
▁Invest
▁Jin
▁ineffective
▁Maxim
▁Grim
plastic
▁refined
▁Raheem
▁disrespect
▁minimize
▁compelled
BER
severe
▁Finding
both
▁VIP
▁Details
▁Attack
▁insistence
▁Chip
▁verse
▁Quarter
▁provoke
▁blackmail
▁MSPs
▁imperative
▁necessity
▁Ikea
▁promoter
▁besides
▁Herbert
▁Wie
▁singers
▁upload
▁instincts
▁gotta
blown
▁proceeded
▁Dmitry
▁skepticism
▁communal
▁syrup
▁Pizza
▁Murty
▁curry
▁Frances
▁prostitutes
▁Known
▁documentation
▁Alpine
▁lunchtime
▁Porsche
▁Hodge
▁Dig
▁vastly
▁Crowd
loving
▁grilled
War
▁owning
▁lime
▁corresponding
March
▁Das
hua
▁Penguin
▁Darwin
▁plaster
▁tearing
▁snakes
Donnell
▁Michelin
▁USC
ibility
dated
▁Carlo
took
▁misdemeanor
▁precarious
▁Najib
▁harmed
▁Coo
▁baseman
▁smack
▁Billboard
▁2017-18
▁peel
▁appointee
bau
▁Dover
gur
▁Whitney
▁seriousness
▁HD
grown
▁Alfred
▁invasive
▁Holder
ffen
file
▁Lund
▁elementary
dler
▁Mitt
▁Dear
▁Offer
▁ponder
▁Duffy
▁Cairns
▁Geoffrey
▁resentment
▁Treaty
such
▁Hyundai
▁acquiring
▁sphere
▁heartfelt
▁rejoin
osh
▁Rankin
▁43-
▁IBM
▁Augusta
▁wraps
▁Luck
▁Till
▁Zurich
▁vis
▁Moran
rik
▁Natasha
▁excerpt
▁MLB
▁flaunted
▁Knox
▁Glover
▁Sporting
▁factions
wald
▁intercept
▁Jail
GE
▁Charge
▁AN
▁Willoughby
▁unstable
▁guru
▁Northampton
▁flipped
gia
▁2%
▁disagreement
▁7.5
▁plummeted
▁mortgages
▁affluent
▁leopard
▁NYPD
▁Move
maid
tention
▁shotgun
▁discusses
▁coward
▁haunted
▁hyd
▁cites
▁endanger
▁evoke
yna
▁HE
▁Tasmania
▁wishing
▁screamed
▁laps
▁Gloucester
▁tasting
▁botched
▁breathtaking
▁emergence
▁Canyon
acc
▁Bend
▁breaching
emia
▁Abd
▁detector
▁roadside
▁bud
▁Rum
▁Donovan
▁solitary
▁trunk
▁homophobic
▁utilities
▁QB
▁Him
▁gradual
▁Pound
Ni
fund
comb
playing
▁Hood
▁fashionable
spiration
▁Bangkok
▁prosecuting
▁accessed
▁hesitate
▁referenced
▁1.9
▁McCall
▁planting
consider
tero
broken
fford
▁Carlton
▁amassed
▁disbelief
then
ndez
▁stag
▁colony
▁700,000
▁rumoured
▁Eb
lice
▁symbols
▁Pai
litre
crime
▁clam
oud
▁generosity
▁Daisy
positive
▁bribery
▁Vicky
▁Levy
iron
▁Zero
ike
▁broaden
alia
▁swings
▁squash
▁gymnastics
ffi
holder
▁outbreaks
▁47-
▁resemble
▁Nova
▁admiration
▁embattled
▁Desert
▁Fleming
.6%
▁Alternative
▁spate
▁Rise
▁enrich
ashi
▁Elvis
SM
▁Saf
▁Mali
▁Slo
▁Pensions
▁$500,000
▁statues
▁variations
▁EST
▁Tide
▁asserted
▁lodge
▁offenses
▁darling
▁Selena
▁frock
▁revision
▁Greene
▁mais
atta
▁sigh
▁cinemas
dé
▁woo
▁IV
▁Chronicle
▁annoyed
▁EDT
▁drastically
▁curves
VE
▁rendered
▁cafes
vill
▁peril
▁MC
▁FEMA
▁breeze
▁nostalgia
▁referencing
price
▁Farmers
▁overlook
▁congratulate
Au
▁54,
▁Medi
▁Zen
▁Innovation
▁Shulkin
▁Contact
▁wrapping
shadow
▁Hop
▁bishop
▁4-2
system
▁Cyrus
▁phrases
▁dumping
▁relocated
▁advertisements
▁metaphor
▁marches
gly
▁gangster
▁architects
▁disturbed
▁remarked
$1
▁maternal
▁generator
cop
Cola
▁drawings
▁3%
▁efficiently
-22
▁danced
▁Weiss
David
▁curiosity
rump
▁expel
▁pup
dyn
▁Stanton
▁Into
▁cas
▁heavier
▁60%
▁thereby
▁jaunes
▁complainant
oka
▁Heaven
▁tolerated
▁shipments
▁rum
▁Coles
▁niche
▁outreach
▁McCl
▁offside
▁probable
▁Ronnie
iter
▁unlimited
▁tailor
▁2.9
▁Hawaiian
Fire
shan
▁Click
lance
▁fairy
ody
▁Eurosceptic
▁sinister
▁Giving
▁palette
ONG
▁reacts
▁Atkinson
▁antique
▁adequately
▁robe
▁reactor
▁Witherspoon
▁spontaneous
▁Coroner
▁Nepal
▁unilateral
▁Cab
▁popping
▁£18
▁hover
▁caller
▁Region
▁graft
▁woodland
▁irrelevant
▁Murrayfield
▁relieve
▁Mugabe
▁forehead
▁womb
▁counselling
▁pave
▁operatives
▁burglar
▁frontline
▁lows
▁crafted
▁injected
RR
bath
▁Hab
▁reside
▁Title
▁cleric
▁praying
▁Foy
iadau
▁communicating
▁foremost
▁Llan
▁titan
nai
olic
▁insect
jack
forward
▁presenters
▁dough
effect
stay
▁mort
▁expansive
▁hygiene
▁swoop
▁tangible
▁bleach
▁McKay
▁2050
▁rewarding
▁spun
kirk
▁notices
▁Allardyce
▁atmospheric
▁Volvo
▁1958
▁cycles
▁conceived
▁jealous
.7%
▁Hob
▁chilly
▁Laurent
esteem
▁profoundly
vu
rush
▁Bachelorette
▁hazardous
Th
▁Growing
▁fragments
▁iPhones
▁wrestle
▁Nicky
CP
▁bundle
▁onions
▁Pharma
▁LLC
Happy
▁Mayo
▁shack
▁Chrissy
▁Judd
▁Horne
▁Bean
uber
Char
▁Zverev
▁physicist
▁vodka
▁pesticide
▁proxy
▁automation
▁brazen
disproportionate
▁Yar
▁Plain
▁premiums
▁Nicaragua
▁Taka
▁Poe
▁Petroleum
▁stimulus
▁Caesar
▁alum
▁insiders
▁discarded
▁farther
birth
▁Account
▁Countries
▁abide
▁gusts
highly
wyd
▁madness
stroke
▁guitarist
▁Prices
itan
▁Enter
eco
▁Luxembourg
▁congregation
▁ivory
▁storytelling
▁Parsons
▁runoff
▁enjoyable
continue
agent
▁Albania
▁Training
▁£17
▁MH
agged
▁insulting
▁transmitted
▁marrying
▁flashing
spirit
give
icular
rse
▁vile
fro
▁Malone
colored
▁Lorraine
▁allegiance
▁easiest
▁Tweet
imon
▁Insider
umble
▁RA
▁swath
▁Skin
natal
▁entertain
▁villagers
▁champ
Chamberlain
▁deterrent
eating
▁tipping
berger
▁lazy
▁pumps
▁Serve
▁prefers
▁Bondi
▁supplying
mani
▁Chat
▁Helm
▁Roxy
▁inflicted
▁Million
▁brighter
▁bark
Super
▁distinguished
▁Dav
▁hawk
union
▁Hussain
oedd
▁Ska
▁groundbreaking
▁115
▁condemning
▁consultants
▁char
▁tents
▁riots
▁tempo
▁Alastair
▁McKenzie
▁swallow
▁Hampton
▁Sca
▁resorts
▁$34
▁pearl
▁90%
▁£100,000
jun
▁Kazakhstan
▁vault
eira
▁restrictive
▁Kri
▁notebook
▁Braves
find
▁450
▁outdated
▁stern
▁collapsing
▁Bot
▁berth
iao
▁championed
▁mocking
▁51-
▁pumped
▁smokers
▁Suddenly
▁clarified
▁McKenna
▁ovation
▁Sr
▁centered
▁Present
▁reminding
▁Moses
▁schoolgirl
▁3.2
▁groin
elman
▁booze
▁Coin
▁stacked
▁hotspot
daughter
▁Cornell
▁robber
▁Alicia
▁din
▁cricketer
-30
▁hypocrisy
etter
▁reinvent
▁pastry
▁goodness
▁Spin
wit
▁breakup
▁receptions
encies
▁realising
▁déc
▁Frankie
▁secrecy
▁Féin
▁seismic
▁Clive
▁embark
▁Bucks
▁partnered
▁Lei
▁Monk
BR
▁density
▁perfume
▁impairment
▁Rie
▁Antarctic
▁skincare
Par
▁neutrality
▁Raz
▁payroll
▁Maz
▁Pew
▁Alder
▁upwards
▁Bass
▁lord
▁shining
▁Fact
▁Baltic
▁trailed
▁peek
▁believer
chie
▁prioritise
▁Moyes
▁Valerie
▁Dry
▁bald
▁Nicholson
▁fray
▁reeling
▁Pav
▁Muir
▁winding
▁Harbor
▁Wise
ncy
▁shameful
▁metallic
▁boasting
▁Sci
▁5-1
▁builder
▁Tab
Two
need
rim
▁ATP
▁Chef
▁Californian
▁beforehand
▁bureaucracy
▁defiance
▁impartial
▁Philippine
▁upgrades
probably
250
▁Amal
▁plausible
▁prevalent
▁Waitrose
▁lunar
▁bowler
▁iOS
▁José
▁stare
▁sydd
▁Mina
▁enact
▁mirrors
▁motherhood
▁bachelor
▁swirl
▁hostel
▁footy
▁surfing
agging
▁heel
▁HM
▁hierarchy
▁ignorance
▁Ramirez
▁Aretha
▁Lap
▁cardboard
▁servers
▁Coral
▁Path
▁Hanson
HE
▁Apparently
▁alleviate
▁swearing
▁forge
▁Mountains
▁dietary
▁cubic
▁blasts
▁shi
▁baggage
▁contemplate
▁Trouble
▁glam
▁Bosnia
▁ripe
▁comprise
▁hunter
▁continental
More
▁Nurmagomedov
▁bruising
▁Becky
▁Monetar
▁northeastern
▁Hague
▁negatively
▁licenses
voy
▁diamonds
▁CL
▁3.1
▁rattled
▁loosen
▁horrendous
tested
quite
▁racked
▁identifies
▁Coronation
▁royalty
▁maxi
▁transmit
▁HA
boyfriend
▁ringing
▁designing
▁Wave
▁hay
▁Feel
slav
▁Electoral
▁Verstappen
▁oyster
stricken
▁deficits
effective
▁withstand
▁bites
▁torment
▁depicts
lug
major
▁oak
▁influenza
▁vinegar
CF
▁Eriksen
▁Pierce
▁overthrow
▁malign
many
▁Cry
▁resonate
angled
▁cookies
▁Author
UD
▁worsen
▁Plymouth
▁punitive
ume
▁Wellington
▁Bone
almost
▁Holding
▁Own
▁CR
voice
▁siren
.1%
▁tablet
▁coats
▁Navarro
zia
horse
▁Pretty
▁slug
▁Nash
▁Naval
▁Pig
oire
▁$26
▁aerospace
▁statutory
▁cameo
▁lad
▁Clu
▁overdue
▁characteristic
▁Said
▁Migration
▁eurozone
▁betrayed
pra
▁goodwill
Up
▁Boat
▁classrooms
▁buttons
▁disciplined
nant
▁accustomed
▁Smoke
▁Thankfully
▁finalists
▁recalling
▁Geoff
2017
▁BC
▁delaying
▁Lottery
▁Petra
▁addictive
▁Peck
▁chapel
league
▁candle
trop
etto
mbi
▁Pit
gain
Du
▁wow
▁gluten
▁TA
cycle
▁ph
wave
▁Nurse
▁airing
▁electron
▁butcher
▁Ethan
▁Jakarta
▁implicated
▁harbor
ej
▁depiction
▁discoveries
▁Belle
Free
▁humiliating
▁overshadowed
▁Quebec
▁confi
▁purge
izz
Calif
▁forgiven
▁Pull
▁Booth
▁songwriter
▁categor
▁corrected
▁Monroe
▁paradise
▁constable
▁inject
▁$400
cion
▁masses
▁54-
▁empowered
▁makeover
lez
▁professionally
▁Nintendo
▁Eurovision
▁stemming
▁Baghdad
▁Gianni
▁Java
▁sandwiches
rl
▁revoked
▁dominating
▁Coachella
▁eleven
▁sedan
▁Mickey
▁authenticity
AU
▁cousins
▁simpler
▁LB
otti
▁cheerful
▁festivities
▁prevalence
▁steroid
▁Adidas
▁Soldier
▁pudding
▁McGinn
▁covert
bak
▁Jolie
immigrant
yama
▁Tip
▁neg
▁Rafa
esse
▁Confederate
▁Gore
worker
▁wellness
▁suspicions
▁outset
protect
▁preserving
▁counselor
▁$150
▁Steph
▁slogans
▁Unite
▁attributes
▁implied
▁Calais
▁wander
▁inhibit
kowski
▁exaggerated
▁112
▁Arlington
▁occurrence
▁reassuring
▁Leinster
▁muscular
▁Adventure
▁signaling
▁Stevenson
▁Oslo
ility
▁Hartley
▁reefs
▁parish
▁dubious
▁neural
▁consensual
▁misled
BE
▁ambush
▁Except
▁tapes
dominated
▁bombers
▁mushrooms
▁twelve
▁tumultuous
here
▁scroll
▁bitten
▁chess
▁46-
▁preseason
cco
▁Katz
liest
▁Ronan
▁fountain
▁practicing
▁Regardless
▁Claus
Will
▁improper
biggest
▁Stern
▁HS
combe
▁perceive
▁Corr
CR
▁slalom
▁PTSD
▁Giroud
▁Harlem
▁Javier
▁nutritional
▁oversized
▁Moo
▁flank
▁Sunni
feel
▁Shocking
▁uni
▁handler
▁Prosecution
▁reconcile
▁Revolutionary
rack
▁Pir
▁1947
▁3.3
▁Baron
▁inspirational
▁massively
dl
▁slices
▁outweigh
▁Giggs
▁cropped
HT
▁cred
▁Darling
▁AJ
▁posture
▁antics
▁Claudia
▁Ottawa
▁modification
▁bake
▁dinosaurs
▁remake
▁flashes
▁wh
▁desirable
▁Yahoo
▁quipped
▁instruction
▁slack
▁Yates
News
▁outsider
▁ft
▁striped
▁CDU
omp
▁Kol
▁medalist
▁commanding
▁Yorkers
▁monuments
▁exploiting
▁Cummins
▁reassurance
▁Sentinel
▁ominous
▁hurricanes
▁screened
▁Tall
▁undo
MAN
▁crane
▁surging
drug
posi
▁sailors
▁graduating
▁Reeve
▁attire
▁advertise
▁CPR
▁Athletics
▁abducted
illi
▁tug
cken
Real
▁informant
▁crave
▁Fitzpatrick
▁Slovenia
▁appalled
▁ODI
▁Ramsay
▁Lyft
ifier
▁systematic
▁motives
lap
▁Hansen
▁merits
▁3.4
▁negligence
▁Meryl
▁Leaf
5.4
BBC
▁Brittany
▁Mkhitaryan
▁taboo
▁nausea
▁Dorsey
nah
▁spilled
▁evolutionary
▁exemptions
▁coping
▁Discovery
▁Farah
▁seating
Gra
▁courtyard
▁proposes
happy
▁Johannesburg
▁Results
▁livelihood
▁Math
▁tentative
hui
iol
keep
▁DNC
▁bats
▁calculations
▁Flag
▁pundit
ardo
▁Horizon
▁reservoir
▁reliant
▁creditors
▁Sid
▁diminish
small
▁referees
▁renovated
illion
▁thwart
▁Gaz
▁disdain
▁Felix
▁JD
▁secretive
▁sticky
▁Georgetown
fly
▁indications
demand
▁relates
▁abundant
▁eradicate
▁Pamela
▁Rec
▁Stocks
▁shortfall
▁hangs
▁ko
▁Miley
▁discourage
▁Twickenham
▁financier
▁famine
▁jumpsuit
▁polished
▁TR
▁resisting
▁ironic
▁Turpin
▁throwback
▁accordingly
male
▁Eleanor
▁demolition
▁varieties
▁Cahill
▁Dinner
▁£35
▁Fake
▁Cobb
▁delightful
▁melted
6.2
ghan
▁Arie
▁assailant
▁contingent
▁Producer
▁miniature
▁Amelia
eration
▁macro
▁militar
▁Pell
reaching
▁airspace
▁retaining
▁Demand
immigration
▁recon
▁Pier
gay
▁Prom
▁richer
▁faulty
▁Skye
plex
▁monk
▁175
▁Barnaby
▁organising
▁pumping
▁brakes
▁muse
▁Nico
▁bodyguard
▁fulfilling
.9%
▁restricting
▁ligament
▁situated
▁Picasso
▁lauded
▁Ramadan
▁mortar
▁nationalists
anticipated
dong
200
know
▁acne
moto
phen
▁Kenyan
anga
▁Rab
▁coli
▁Arms
▁Nauert
▁bracket
▁allergic
▁camping
▁constraints
▁Blasey
▁whipped
▁Cafe
▁Rowley
▁08
center
living
xton
▁Eco
▁businessmen
sick
▁skier
▁fracture
▁Haw
▁arbitration
▁hugged
▁slamming
▁Plaza
▁Alongside
▁Capitals
▁landfill
▁Eleven
▁Pil
eastern
▁surpassed
▁DeVos
▁Luton
▁tempting
iste
▁Este
▁0.9
▁abandoning
▁frog
▁tenant
▁candles
▁VR
▁Truth
▁epilepsy
▁narrator
▁remedy
▁Nava
▁FISA
▁ACLU
▁FedEx
▁Archer
▁Moody
▁bacterial
▁erected
▁deux
▁($3
flower
▁wandering
ured
▁Ivy
▁Member
▁creep
▁slate
▁circular
▁interfering
▁reliability
mbling
▁Enrique
▁connects
▁monkeys
▁Shay
▁depths
▁sufferers
▁sourced
▁Multi
▁commodities
▁staircase
▁onlookers
▁dunk
▁Savage
▁fiancé
▁Aust
---
▁Platt
▁Reich
▁Rub
RU
▁Dash
▁populism
▁Windows
▁softer
▁Sandberg
▁..."
▁emulate
▁YOU
▁conditioning
entry
▁graves
▁Ara
▁bespoke
smart
▁Lewandowski
▁superintendent
▁freshly
▁squat
▁mistakenly
▁catering
▁meteorologist
▁Perkins
▁bricks
iano
▁worsening
▁Kei
EP
dimensional
▁fait
▁stun
▁Dywedodd
▁mercury
▁recurring
▁Breitbart
▁Croatian
▁Englishman
▁swung
RM
▁Surely
psy
Did
▁freezer
NK
ango
▁Henri
▁Victims
▁empowering
▁Wilshere
▁specimen
prnewswire
▁Janeiro
▁hue
▁Same
▁surrendered
.8%
▁3.7
uation
▁underscore
▁reasoning
phon
▁workouts
▁HMRC
gles
▁Christianity
▁rigid
▁SS
▁behaved
▁overcame
prop
▁Lloyds
▁bystander
▁amended
▁Serbian
▁conform
rape
rip
dream
▁Moroccan
▁existential
▁Shawn
▁chairwoman
▁Planned
▁hampered
▁Rural
▁Corner
▁Monster
▁Asset
▁Hoy
▁Question
brain
GM
▁70%
▁Kingston
▁useless
▁lent
▁Depression
▁swapped
▁veer
▁spanning
▁Shiite
▁soda
▁Goldberg
▁footing
wedd
▁Ranch
▁masked
▁CC
▁Advocate
▁baffled
oda
▁cupboard
LM
Pi
▁15%
▁lamented
▁Elias
dai
▁understandably
▁entitlement
▁Inverness
▁clown
▁Popular
▁Navalny
▁Momentum
▁Carly
▁profitability
employed
▁ICC
Red
▁Haven
▁Flores
▁TODAY
▁Withdrawal
▁ferocious
▁AK
▁impasse
▁pun
▁Cody
▁lush
▁$250
▁Acting
▁edit
▁Healthcare
▁Wash
▁Cover
▁Foles
▁Dock
▁Success
▁café
▁penetrate
▁disqualified
▁enlisted
▁terminated
▁starlet
▁colder
hum
▁Gol
▁violently
▁arrow
▁Jew
▁compatriot
▁unanswered
▁Hobart
ppe
▁Progress
▁opposes
note
Everybody
▁Geo
▁Rip
▁decor
▁disappearing
▁Seehofer
▁cuddle
▁Stefanovic
▁stat
▁Sixers
▁Hou
Kim
▁obsessive
▁Wolfe
▁plague
Part
▁Rom
vale
▁Benedict
▁relegated
▁mince
▁uproar
▁Anything
▁Hayden
spy
Miss
▁undercut
▁Hon
▁baseline
▁frantic
▁Viewers
▁emblazoned
▁moisture
▁mac
▁tissues
▁Braun
▁grains
▁embryos
▁Wide
▁Sym
▁Hack
▁Barber
▁Correspondent
▁Melanie
▁Portsmouth
mack
▁scalp
▁hectares
▁insert
shell
▁calorie
kor
death
▁IRS
▁Episode
▁hollow
▁heartbreak
▁Planning
▁portable
▁Barker
▁Billie
▁Stri
▁seam
▁peaked
▁tuck
▁Vehicle
▁pragmatic
▁Ortiz
▁Blind
▁Tau
▁Vardy
▁inadvertently
▁glove
▁Ghost
▁reel
oxy
▁deteriorated
▁Ll
▁OF
TF
▁Carmen
▁subscribe
▁Belichick
▁apologies
▁Adviser
▁reptile
▁senate
▁Waymo
▁Canal
▁damp
▁Andreas
▁playmaker
▁onboard
▁7-5
▁disapprove
▁Commercial
▁Lockheed
▁Jennings
▁unfamiliar
▁baker
▁dysfunction
▁occupy
▁extensively
must
▁Tickets
▁shrug
▁guiding
▁liable
▁craving
▁harmless
▁fanatic
▁Wearing
igne
▁contradiction
▁bakery
▁Wozniacki
▁clergy
▁sequin
loaded
▁traction
▁researching
▁contacting
▁mentioning
ffy
▁incorporated
▁downstairs
▁measles
▁Tanzania
▁equation
▁voyage
▁vying
ffle
allow
erton
worst
▁Scientific
▁DIY
▁tumors
▁103
▁Ola
▁Gallup
▁Charleston
▁nap
efficient
▁Comment
cutting
▁$20,000
▁Gregg
▁Experience
▁Wyoming
▁pundits
▁anguish
▁Paint
▁vow
▁trails
▁SW
▁Grill
▁litres
▁Haitian
▁Transit
burgh
▁barricade
▁crust
▁Pickford
ditch
▁digest
▁protocols
▁sounding
resistant
mey
priv
▁Saving
▁Santo
▁flex
Shutterstock
▁Elementary
▁Tournament
▁philosopher
▁kayak
▁$22
▁chanted
▁Plate
▁Grayling
▁Bac
kova
AW
▁Hayne
professional
▁Burger
▁Rei
▁behavioral
▁sleeve
cylinder
▁Hotspur
▁traffickers
▁Kang
▁ransom
▁Warsaw
▁courageous
▁smoothly
▁Hulu
gres
armed
▁discriminatory
olog
▁frontman
▁entertainer
▁agony
▁evaluated
▁Taj
ih
▁Ramaphosa
▁fracking
▁lobster
▁unspecified
▁depressing
▁mold
▁prioritize
▁Lori
▁mai
▁criticising
▁Fro
▁Leadership
▁NC
▁painkillers
▁Ful
▁brake
▁ticking
▁Color
Saturday
▁1500
▁Barca
▁Pulitzer
▁adversaries
▁turbine
▁charismatic
▁Ibrahimovic
▁restriction
baby
▁screenshot
▁Mei
▁Draw
▁Neuro
▁Fern
rob
▁Ou
▁Arabian
▁horrifying
▁nineteen
▁interrupt
▁dreadful
▁crumble
▁losers
▁congratulated
▁unveiling
▁savvy
RY
▁(17
▁indicators
▁enclosure
▁erosion
▁mafia
▁Forward
▁Odd
▁Advisor
▁Watching
▁comme
▁102
▁prostitution
▁backward
▁forgiveness
gilets
▁£50,000
▁1954
▁hunk
1.5
DO
▁hut
▁ddim
Sea
▁Advanced
▁Ritchie
▁confidant
▁disperse
▁groceries
▁harvested
▁Ayr
▁rested
▁soybeans
iq
▁avant
▁Cate
▁Tang
▁bowled
nominated
▁waterfront
iaeth
▁Sarri
▁Tropical
▁skimpy
▁bowls
▁ecological
null
▁Cavs
▁defied
▁Adult
issi
▁Insp
▁116
▁translates
▁Sharapova
▁crippling
▁reluctance
▁saint
▁malaria
dead
escent
▁pathogen
▁educators
toxic
Cu
▁adjustments
▁Otto
▁wo
▁Randall
fried
▁installing
famous
Out
bottom
▁discretion
▁3.6
▁segregation
▁testosterone
▁amazed
▁bulb
▁spacious
▁Fleet
▁slope
▁drummer
▁Barb
▁resigning
▁Abuse
▁declares
▁Boone
▁Avi
▁intentional
▁Bates
haven
▁SFA
▁distressing
▁breakout
▁Maldives
▁nicotine
▁Robbins
▁53-
▁governed
▁FOR
▁conflicting
▁unearthed
▁recuse
▁sled
▁neckline
▁Marin
▁Keen
▁tightened
▁Mach
▁Dutton
thought
▁clot
▁glide
▁Cli
▁exacerbated
▁collaborative
▁jeopardy
▁hurry
▁Reveal
▁Kirby
▁Walters
▁entail
▁redesign
▁Claude
▁Everest
▁apples
▁torso
▁1-2
▁collector
imposed
▁Rea
▁defects
▁Audit
▁Fuller
▁Stat
eiro
▁Kohli
▁Wallabies
▁Watkins
▁unborn
▁sterling
▁automobile
▁disagreements
▁athletics
▁insecurity
▁Missing
▁ashes
▁trader
GC
▁picturesque
Great
▁jack
▁imperial
▁repercussions
▁Colonel
▁Finnish
▁townhouse
▁automaker
▁ANC
uga
▁polo
shoulder
▁Qaeda
▁unconventional
▁stabilize
▁Bai
fiction
▁1959
▁unwell
oil
DM
▁trumpet
▁tuned
▁outsiders
▁peacefully
▁illustrated
▁render
▁Mayfield
▁turbo
▁openness
▁Morata
▁Flying
noy
mul
▁Parade
▁employing
▁exited
▁Trip
▁probability
▁whim
▁incorrectly
▁decay
▁Parenthood
▁boiling
▁106
▁reef
▁Mess
WD
different
▁dispatch
▁Kyi
electric
................
▁parachute
▁reversing
▁Pirates
▁tracker
▁lle
▁Rocky
ruff
ardi
▁witnessing
ych
▁Milk
▁Alec
▁Carnival
▁skyscraper
▁showcasing
▁Jarrod
▁inheritance
▁reelection
vote
▁chronicle
British
pointers
▁campuses
▁Touch
▁reckoning
▁reunification
▁Shelley
▁Thornton
▁disgust
meaning
▁newsroom
▁Dies
dust
▁Flat
▁Panel
Facebook
▁savers
▁environmentally
▁equities
▁Equal
▁Lay
▁cheated
▁Bowen
▁adorned
judge
▁dampen
▁Trinity
▁accolade
▁affiliation
▁forehand
▁connectivity
▁Idol
▁competent
racial
▁perpetrator
▁thanking
scribe
hardt
▁literacy
▁DVD
▁begged
EPA
▁buffer
haul
▁Hello
▁paddle
▁queer
▁arose
▁creepy
▁accessing
Women
▁737
▁Ibrahim
Connell
▁Honduran
▁Middlesbrough
▁receptor
misunderstanding
lied
▁Rot
▁Marvin
▁arresting
Unfortunately
-23
RB
▁Kilauea
▁intimacy
▁Wald
▁Kathy
without
▁outward
flat
▁Lego
▁cull
▁manipulated
▁worsened
▁booster
quan
▁vagina
▁Alyssa
▁Kathleen
▁Lieutenant
▁Tyrone
▁reshuffle
▁eternal
▁Burgess
▁Gowdy
▁Nasser
were
▁doom
▁Clara
▁Bennell
▁attachment
fusion
BM
▁perceptions
▁Congressman
▁Ricciardo
▁sceptical
▁ovarian
▁wilderness
▁Problem
paying
▁OPCW
▁assurance
▁mindful
forth
obo
CB
Having
▁fascinated
▁internally
▁topless
▁screenplay
▁Curran
▁Runner
▁cosmetics
toria
acting
▁Gerry
throw
▁chaired
▁rug
▁Bau
▁Rebel
▁Critic
▁WW
aku
▁vests
▁PP
nip
▁Route
Benz
▁kilograms
▁sacking
▁Tun
▁MIT
▁choke
▁Musical
▁erect
▁Beard
▁marred
Luc
▁cannon
▁specialized
▁2024
Gen
▁optical
▁embryo
RF
▁goalie
Come
▁Fabian
▁resurrect
▁observing
▁Venture
▁Portman
▁numb
▁Weber
▁Nordic
AF
▁PG
▁hamper
▁Fernandez
▁gruesome
▁Industries
▁Visitors
glu
▁Borough
▁Giro
▁Stranger
Being
▁historians
6.4
common
tape
cultural
▁Rapid
▁Temperatures
▁ok
talk
▁gust
▁Piper
▁104
▁organisms
▁Metal
▁Register
WT
▁auditor
▁Schi
▁Relief
▁desperation
▁fragrance
▁pharmacist
▁monarchy
▁collaborated
▁Users
▁Wol
▁Bul
▁Batman
TY
▁smarter
Given
▁interviewing
▁password
▁expires
ulous
▁Carnegie
▁accelerating
haka
▁Billboards
watering
▁pathways
▁Bud
▁nationality
▁workload
bred
▁chant
▁Citi
▁Modric
▁Varadkar
▁grappling
▁Tonga
▁anonymously
once
▁Yn
▁daytime
player
▁Kap
▁debit
▁gran
Scotland
nez
flam
▁Guterres
▁Pharmaceutical
▁Bentley
uti
▁methane
▁safeguarding
▁Job
didn
UP
▁stalking
▁Clay
▁Orb
▁Newtown
▁tearful
▁vain
▁tranquil
▁myriad
▁HI
▁Dianne
▁grit
▁Ultra
▁Maid
▁Witch
▁signalled
▁£70
rounder
▁Usually
▁surname
total
▁Marriott
▁Mbappe
▁deliberation
▁oppression
▁stalemate
▁transcend
▁Baroness
▁DU
▁Henrik
▁tapping
▁Randy
▁dismissing
▁Ang
▁stresses
▁Drivers
▁Wag
▁Eng
▁tract
▁Meyers
borough
▁recognizing
▁mercy
▁biodiversity
▁reassured
▁Foley
▁Goals
▁tau
▁Grammys
▁Rocket
▁Fahrenheit
▁Savannah
▁ceremonial
▁extravagant
▁precinct
▁wreath
▁Telegram
▁hitmaker
▁compassionate
builder
▁renamed
▁pho
▁textile
▁bracelet
▁Burn
▁Irishman
DR
much
▁downgraded
▁calmly
▁Build
▁Ruben
▁Havana
▁LNG
▁tainted
▁TSB
▁enterprises
▁empowerment
▁Mama
▁geographical
▁Chin
▁Bowman
▁CPS
fal
▁modeling
▁dolphins
▁deflected
▁insurgents
▁Bairstow
▁Arrivals
▁Gatland
▁Purdue
▁Task
▁Level
▁Thistle
▁Export
▁surfer
▁iceberg
▁sul
▁convict
establishment
Jones
▁Dai
▁poles
▁carnival
▁resemblance
ELL
▁pumpkin
▁chants
deb
totally
▁scant
▁resembles
▁hijab
Jack
▁Copa
▁1944
▁Aki
▁pier
ppen
▁interpreter
▁tart
vul
counter
expletive
▁Clemson
▁allergies
▁bouncing
▁neurological
dock
▁Winnie
▁Lima
rud
▁mastermind
▁blistering
▁Kee
▁sorted
▁faction
▁reinstate
▁Anita
▁Alvarez
▁pregnancies
▁geography
▁Guzman
embe
touch
iman
▁Friedman
ipping
▁Georgian
▁LED
▁Pap
greg
▁hence
depth
▁Unionist
▁extinct
▁hopeless
brow
▁Hockey
▁archaeological
▁autobiography
▁Emanuel
▁SoftBank
▁Chandler
▁Dior
▁felon
▁Beautiful
VO
▁rave
priced
▁Hate
▁perilous
▁stripes
critical
▁Bog
▁Hemsworth
▁Marlins
▁gospel
▁Found
Mac
▁installment
liv
▁hourly
omi
▁Manchin
▁camel
bh
▁enforcing
▁structured
▁facade
▁parasite
▁muted
▁disco
▁roam
▁Plans
▁Sig
▁55-
▁jour
▁rocking
▁lawful
▁BuzzFeed
▁supremacy
▁centenary
▁Amir
fell
▁Grab
▁Hayley
▁unfit
better
▁coincided
-2)
nta
▁Hir
collar
enburg
▁contingency
▁yoghurt
▁penguin
▁ceilings
▁unavailable
▁diners
▁Edwin
▁1957
▁tack
branded
▁Manly
▁postal
▁bumper
vio
▁deprivation
▁gruelling
▁président
▁brigade
▁outpouring
▁homosexuality
▁dye
sort
▁lapse
▁Dollar
▁abrupt
support
▁ranged
▁Advisory
▁Bryce
▁blouse
▁wrestler
▁multilateral
▁dismal
▁roasted
▁Kumar
▁Vonn
▁pleasing
▁Nichols
▁stitch
▁regained
defense
▁Ofcom
captain
▁Von
▁Wylie
▁bisexual
▁prom
▁pensioners
▁Moving
▁Flash
▁Historic
garde
▁ecosystems
lasting
▁accomplishments
▁reliever
▁revamp
▁ire
▁Rule
▁Bundesliga
▁Ferdinand
▁glucose
▁homers
▁rife
▁cellular
▁equate
▁strangled
▁impeach
nica
▁challengers
▁vigilant
▁Wiggins
▁plume
▁Angelina
▁emit
▁turtles
▁flavors
thinking
kept
▁disguise
▁Kirsten
cke
again
xx
▁outpost
▁paycheck
▁Kno
nol
▁Sharif
▁Kilda
nav
▁Legislature
▁Menendez
▁Blunt
▁suppression
charged
▁Carolyn
▁Ladies
gler
▁Warwick
existent
▁meme
rrie
▁$21
▁Daley
Ki
▁detached
▁Sharma
▁spelling
▁Volunteer
▁incarceration
▁Tomorrow
▁versatile
▁Gracie
300
▁rainy
manship
lax
▁polish
idio
?!
▁vulgar
▁noble
▁brewing
▁trending
▁Giant
▁Ale
train
▁Rent
▁molecule
▁wartime
▁Jedi
stained
▁Reef
wielding
▁Spr
▁clamp
▁Gap
▁addict
▁Haas
▁exquisite
▁inconvenience
▁porch
▁loyalist
▁handshake
▁Crowley
▁Gym
▁Edgar
▁Kogan
Mil
▁Sexton
▁1955
▁Fiat
▁ethnicity
▁rover
▁Loose
female
▁distraught
▁ensuing
▁FCC
▁£500,000
yev
▁Gabrielle
▁dolls
▁usher
▁MU
▁stalk
▁reflective
▁Harden
▁hose
▁conjunction
▁peculiar
▁medicinal
▁undergraduate
▁Macau
Cas
▁Housewives
▁$28
▁Luca
▁49-
▁lust
▁demolished
▁aided
▁Near
▁engineered
▁Merri
gang
▁celeb
▁rag
▁intimidating
▁rupture
▁vehemently
▁Territory
aven
▁ripple
▁divine
▁Reason
▁Organ
icle
named
torn
▁Barnett
racist
▁fiancée
▁collectors
Che
▁CE
▁relocate
Ariz
Nothing
▁McLean
▁puppies
▁Monitor
▁7.30
▁racy
▁brightly
▁browser
▁progressing
vocation
▁123
▁Keira
▁Macy
▁feather
Nor
▁retract
▁owes
▁corridors
unit
▁meteor
▁millennial
▁Aleppo
▁Athlete
▁Galloway
▁consortium
▁controversies
▁Morales
▁Originally
▁Kaiser
▁Trek
▁mé
▁IQ
uge
user
▁Gy
▁stamped
beck
▁indexes
▁Italia
kid
▁solicit
▁fil
▁Chee
appointed
▁donating
▁Vaughan
▁evasion
▁platinum
▁hobby
▁cinematic
90,000
phobia
UM
▁hooker
▁feathers
▁Pill
▁LG
▁snatch
▁memes
wig
▁Maas
▁certification
▁Martial
▁monologue
▁bracing
▁Hip
▁armour
footed
▁"60
▁violin
mple
▁Correction
▁Mora
▁Autumn
▁liquor
▁perimeter
▁Essential
▁Teresa
▁cohort
▁discern
▁Fusion
▁Moreno
▁Sitting
▁Wasps
▁Sao
▁stringent
chain
▁scour
▁Might
▁Nic
▁$19
▁provisional
▁Fighting
▁Suu
▁4.2
▁bugs
▁unilaterally
evil
▁14,000
▁Neighbor
▁Solutions
▁wrth
▁Boots
▁thaw
▁germ
▁bribes
▁dorm
▁detrimental
▁poems
html
short
▁11,000
RIS
▁fatty
▁funnel
▁accumulated
▁Salmond
▁Hertfordshire
▁Ricardo
▁arthritis
▁artillery
▁Bromwich
▁Gorsuch
▁morale
▁lured
▁conjure
▁singular
▁Webster
▁Norris
▁Marcel
▁Develop
▁RBIs
▁Pour
Tom
▁ubiquitous
▁Virgil
▁draped
▁chalk
▁ripping
▁thermal
▁untrue
▁hyn
▁EM
▁banners
▁enthusiasts
▁resent
▁herbs
▁corps
official
tica
▁Becker
amine
▁teaspoon
▁Griezmann
▁asbestos
▁temptation
target
▁Yun
▁Marion
▁Rockies
lica
▁catcher
▁Scan
▁informing
▁dismay
▁Caldwell
▁blitz
▁angrily
massive
▁correspondence
▁Treatment
▁mustard
▁Gillian
energy
▁Mao
▁merge
▁cheeks
▁cobble
idad
Blue
▁sergeant
▁descendants
▁Shri
uci
designed
▁documenting
▁Bald
▁restrained
▁Thu
tweet
yellow
▁wolves
▁Paddington
▁apartheid
▁trench
▁Kip
poll
packed
▁weaknesses
opening
▁caretaker
▁Tencent
▁Dyer
▁Falk
▁Catch
▁meddle
▁Paw
Associated
Michael
▁sophomore
rington
▁Interpol
▁devolution
▁telecoms
▁80,000
▁limbo
does
▁basin
▁Olympia
▁Clinical
▁paw
▁Somali
▁dice
▁Deferred
▁Majesty
▁Surveillance
▁Threat
▁sluggish
denuclearisation
▁Filipino
Air
▁UV
▁Batt
▁hugging
gone
▁pledging
▁Woolworths
▁upbringing
▁Moussa
▁Princeton
▁inserted
▁comprised
▁Cause
▁inventor
▁Zak
Stop
▁presumed
hren
▁Corden
▁safest
▁unjust
▁Rochdale
20,000
▁distrust
▁unlucky
▁vanilla
ometer
oun
▁Riverside
virus
▁Schneider
tolerant
doping
▁dinosaur
▁mantra
▁Exxon
▁accomplice
▁democracies
▁infiltrate
▁razor
▁Damien
▁patrons
▁smugglers
▁Kiwi
anza
also
▁counseling
▁helpless
licit
established
▁cock
▁Pam
▁emission
▁biting
▁Worcester
▁Composite
▁Einstein
▁Rakhine
▁Symphony
RD
▁orchestrated
always
▁1956
holding
▁(£7
▁bless
▁Tessa
binary
▁Boca
leave
▁activate
▁upheaval
hey
▁Peskov
▁sailed
mous
France
▁Haram
▁spiked
▁atomic
▁Rebels
▁cube
▁decency
▁7:30
▁cockpit
▁Quality
▁McQueen
Qaeda
▁deploying
▁Shinzo
▁procurement
terrorist
▁Munster
▁Hedges
▁Jodie
▁tractor
▁angles
erator
▁225
▁Roedd
infused
▁advertisement
▁Pardew
▁Separately
▁disparity
▁debating
NP
▁continuity
▁benefiting
operate
▁screams
▁NL
toral
▁ceramic
▁proponent
dangerous
poor
▁nudge
▁stirred
▁Romelu
▁erupt
▁awaits
▁superpower
▁114
▁carers
▁Fein
Take
pretty
▁DeSantis
▁pianist
▁Lew
▁summed
▁toured
▁sir
WE
▁nous
▁Teddy
partner
▁1949
▁slum
▁Postal
ART
▁monumental
▁capitalist
▁collaborate
▁tonne
▁scaled
▁Khabib
▁McLaughlin
▁Uefa
Honestly
▁McDaniel
▁imperfect
▁underestimate
▁operative
sports
▁Wink
NH
▁4%
▁Tran
kil
▁yw
▁Kirsty
urban
▁Fau
▁financed
▁burgers
▁Viv
solve
scenes
nio
▁Equality
▁£75
▁UBS
▁nuptials
▁forbidden
ahead
▁mash
▁gaffe
▁Wizards
western
▁deem
▁Wheel
▁Drama
▁defy
▁$1.4
▁layered
▁tragically
▁envy
▁Alpha
▁Herman
▁poke
Sport
▁Adel
product
▁Belarus
▁resurgence
▁retweeted
▁migrate
Riordan
▁Forget
▁Interstate
▁Trading
▁Watergate
▁Paso
▁adulthood
doubt
assa
▁gunmen
▁claimants
▁Bavaria
WC
▁nominate
▁Saccone
▁metropolitan
▁spicy
▁autistic
▁£300
▁defraud
▁Papua
▁cleansing
▁widening
▁Cyril
legal
▁Ole
▁Admiral
▁Edouard
▁Wanderers
▁Gloria
▁noisy
Roseanne
Nobody
draw
nice
▁Serb
▁hotline
▁Strange
▁separatists
▁bas
▁undefeated
▁Morelos
▁peach
stance
▁uniquely
▁Sami
▁Bowers
▁MMA
▁($4
▁taxation
▁Shorten
Despite
Little
▁chord
▁snatched
▁tame
▁KFC
▁ethic
▁readiness
▁deli
vez
▁Maio
/5
▁biscuits
▁rays
breaker
▁lifeline
▁Sane
▁wounding
▁insurgency
▁kangaroo
▁maturity
▁nurture
▁ponytail
▁Defender
activ
Port
▁cooperative
▁affordability
▁marshal
▁trustees
▁(£4
▁honoring
▁Compar
▁Programme
▁Domin
▁Alistair
▁Pelicans
▁Tobacco
▁slain
▁forcibly
▁vandal
abortion
▁Warnock
▁chew
▁induced
▁transferring
▁chatted
highest
▁$90
▁radically
▁upright
▁shatter
lung
▁brilliance
▁destiny
▁feminine
▁Katrina
▁Teigen
published
jer
Police
▁moist
▁CON
▁beaming
▁heroine
ibi
▁Yama
▁sightings
limited
▁Parisian
▁infinite
▁trolley
▁Pension
▁managerial
▁Khalid
▁Whil
▁1939
early
▁hammered
▁aspire
fel
sproportionately
DD
▁motivate
▁statistic
▁beneficiaries
▁zombie
▁compartment
▁Document
▁caramel
▁roar
▁humidity
▁eviction
▁unfolding
▁heck
▁Lena
cious
PT
hab
▁Visa
lean
▁overlap
bly
▁McCoy
▁Census
▁wreak
▁Easy
▁Albany
hate
350
▁Elena
▁LOS
▁honorary
▁Fee
▁spiders
▁devised
kovic
▁vie
▁saddle
▁Chocolate
▁eligibility
▁Celeb
▁effortlessly
▁WPP
▁inappropriately
▁grievances
▁Loan
▁Aidan
▁£80
ographic
▁roommate
cliff
▁$200,000
▁Concert
unacceptable
▁strikeouts
▁analyse
▁cider
▁texting
▁expat
▁Boko
▁advancement
▁Levine
doing
▁TOWIE
▁paradox
▁pervasive
▁gorilla
Mobile
▁Wealth
▁discounted
▁Rouge
cette
▁absentee
▁108
yet
▁Bard
▁quotas
▁Renaissance
▁ejected
▁Fischer
▁Crosby
▁Edition
▁Regulator
▁CAR
▁$24
ovsky
▁postpone
▁locking
▁Paine
▁DeGeneres
▁LinkedIn
▁Twelve
▁alligator
▁sorrow
▁bullpen
▁Bravo
Then
kla
▁mattered
▁Ark
▁cite
gé
▁sw
▁Collingwood
▁Flanagan
▁bouquet
▁TIME
▁panicked
▁frail
▁patriotic
▁bullish
▁varies
▁onset
7.2
▁dda
▁owing
▁Wolverhampton
▁bureaucratic
▁conceding
▁endeavour
▁Mahrez
▁lashes
Game
▁behaving
Chris
▁overtake
▁Harmon
dance
▁Ear
bai
▁Patti
▁irregular
▁Naga
▁Dumfries
▁Cumbria
▁Suspect
▁Coats
▁hallmark
▁Niger
▁Brave
▁Fil
▁flatter
loe
tea
én
▁Budd
quit
▁motorist
▁anecdote
▁Greatest
▁benign
▁avait
▁adjusting
▁Willian
dark
▁Marcelo
▁prohibition
▁waterfall
▁impaired
380
▁freestyle
▁benches
▁veg
▁insecure
▁towels
▁Tee
▁sepsis
pod
spoken
▁£1.5
▁Soho
▁saturated
▁legalization
▁Wear
▁$65
However
▁forecasters
▁drained
▁waiver
▁bailout
Vo
▁intimidated
▁Cultural
▁McPartlin
▁sabotage
▁Mosul
▁Interview
▁whiskey
▁rod
▁Serious
▁$5,000
▁Expo
▁foray
-3)
▁explorer
▁regretted
kka
▁posh
▁safeguards
bread
▁Sabrina
▁Greenwich
▁Arn
process
▁Potro
▁jihadi
▁swirling
Ben
▁Buccaneers
▁Meredith
▁Spiegel
▁appropriation
▁extraordinarily
▁Persian
gold
▁uphill
▁boob
▁Basel
▁Pru
▁vanish
▁cordon
true
▁Jacqueline
▁monopoly
▁3.8
▁Sorry
cule
▁propelled
▁Heller
▁Sei
▁printer
-25
▁Alberto
▁Burr
▁commuter
▁Seeing
▁prohibits
▁Leith
▁bots
▁extradited
▁newcomers
▁spit
heat
BT
▁Hick
injiang
▁chlorine
▁devotion
▁longevity
hie
▁Esther
▁Rodney
▁confidentiality
▁fret
▁Fix
▁eine
mind
▁drawer
▁Niro
▁gam
▁diversify
▁6-0
▁Rubin
▁mighty
▁Warning
▁Beirut
▁Felipe
▁Nikkei
▁RELATED
▁maximise
▁Phillies
▁Arrest
onia
▁muddy
▁stealth
▁erase
▁Neighbours
▁CSU
▁Shak
▁Dou
▁Ducks
▁Mahmoud
▁McMahon
▁durable
▁silicon
▁Parole
▁dependence
bic
▁Manson
▁reacting
payer
▁Gha
▁fractures
▁Tester
▁Michele
▁Cycling
▁dismantling
▁Jacques
▁Herrera
▁stove
▁rugged
▁mascot
▁VAT
▁Conn
elia
▁positioning
▁Nie
▁polled
ATE
osaur
▁slit
▁Ingraham
▁Snyder
▁swollen
▁Terminal
▁Mandy
▁Lincolnshire
▁Dahl
▁Issue
▁Spy
▁troop
planned
athlon
▁stocking
▁Incredible
▁ignited
▁waivers
▁Willow
▁dragon
▁invaded
▁clinched
▁hinge
▁Cecil
▁Nguyen
▁congratulations
▁diagnostic
▁societal
▁snowy
▁beamed
▁Zika
▁uneven
▁rebuilt
RL
7.4
placement
▁folded
▁hurl
▁Cay
▁runaway
▁revert
▁Laden
▁setup
▁Staffordshire
▁adrenaline
▁Geographic
▁rhai
▁fading
▁spinner
▁tiles
▁Reality
▁modify
▁axed
▁Borg
▁stalls
bio
▁entrenched
▁intruder
▁Vernon
Royce
Girl
abiding
▁Romero
▁notify
▁vowing
▁Bare
▁loft
cation
pole
▁Tierney
▁burgeoning
▁driverless
fulness
lag
▁Biology
▁Nell
▁Schneiderman
▁Luna
affe
▁denounce
▁Ascot
▁ScotRail
▁metabolism
▁uranium
▁thirst
▁implies
wad
bah
▁roedd
▁finalist
▁dan
arily
▁volunteered
▁enviable
▁inflatable
▁liberation
▁microbes
▁Built
▁Nix
traumatic
▁Fried
▁dwell
▁disrupting
▁Stark
▁Maple
▁£150
▁impoverished
▁fulfilled
▁indirectly
▁cellar
▁Goodwin
von
▁Addressing
▁analyses
▁Equi
aware
hane
▁recognising
▁Predator
▁Birthday
▁pivot
inducing
▁Drum
▁bursting
▁Vance
▁passwords
▁Tess
▁socio
▁plantation
▁1)
▁mutation
▁Slim
▁Prohibition
▁Handmaid
▁dispense
▁tagged
▁railroad
▁riff
▁skipped
▁Laver
igno
▁proliferation
▁gloss
▁converting
▁Moments
▁horns
▁Chrysler
▁Mahathir
▁unaccompanied
▁(1)
▁interstate
▁Sunrise
▁Scandinavian
▁bruised
▁Value
scot
▁Clifton
▁Mackenzie
▁skyrocket
▁discontent
▁Rennie
▁Forty
Rex
▁atoms
▁petty
▁grapes
▁marina
pad
▁migraine
LR
▁Liberation
▁underage
▁Auburn
▁Rate
▁vaccinated
▁guarded
▁Pub
▁realizing
▁Banking
▁Lemon
legged
▁Participants
▁flair
▁casket
/12
▁sunscreen
▁Trial
Israel
▁omission
threat
▁Westbrook
▁fusion
▁neon
▁labelling
▁rollout
bolic
▁Kia
Per
▁repression
▁translator
▁unrealistic
▁Simply
▁bowlers
▁tasty
▁assemble
▁coastguard
truth
approved
illard
join
yong
▁daddy
▁Spade
▁Pratt
▁Ready
▁skiers
▁theorist
▁Madeleine
▁harassing
▁tidy
▁abduction
▁uneasy
automatic
▁Zam
ifer
▁downfall
allah
▁Twin
330
▁loser
▁Ethics
▁McCaskill
▁Sheldon
▁ethos
▁implicit
▁paragraph
▁verification
▁northwestern
▁Outstanding
trib
▁noticeable
▁Sprint
▁Disneyland
vou
▁induce
igation
▁Bayer
gaz
▁Roche
▁Bordeaux
▁lobbied
▁vineyard
▁apprenticeship
▁Buttler
▁Malm
▁inherent
stakes
▁occupants
▁preacher
▁deception
▁haircut
▁neatly
▁Stormont
▁70,000
▁rapport
▁menace
▁Maritime
seekers
▁sip
▁complicit
▁levelled
▁2018-19
▁inspected
▁Colon
/16
▁Rare
▁Azar
RN
▁Carbon
▁Mikhail
▁consolation
▁prosthetic
▁vulnerabilities
▁Newark
▁stunner
▁textbook
▁inherit
▁brood
▁apprehended
▁leaflet
▁shred
▁scoreless
▁1900
▁exhibited
▁Wilkins
▁bridesmaid
▁sizzling
▁envisage
▁histories
▁waitress
▁Sayoc
▁Thom
▁$27
▁terminate
bull
▁scanner
▁Reach
modern
▁midweek
▁Bavarian
▁Barra
▁disrespectful
▁sugary
▁Dwayne
▁GCSE
▁adventurous
▁painstaking
▁paused
▁thorn
▁strapped
beautiful
▁morally
▁chuck
▁classmate
▁Maher
learn
▁pigment
▁dros
During
▁fascist
▁Leipzig
▁McVey
▁Politicians
▁acquaintance
▁150,000
▁Calder
songwriter
▁Liberia
▁Nik
▁Gee
▁misrepresent
isch
▁Cameroon
▁tablespoon
▁wrinkle
▁module
▁microwave
▁toppled
▁resolving
▁Franc
▁earners
▁Pilot
Tech
▁adjustment
▁Hamm
FP
▁objection
▁schoolboy
Parliamentary
▁Macquarie
▁tumbling
▁transporting
▁vendor
▁Kerber
▁manoeuvre
▁prized
trap
expensive
▁Harriet
PER
▁Twins
▁leaned
▁derailed
▁Kho
▁predatory
▁gadgets
▁cyst
▁philosophical
▁procedural
▁Gould
▁dude
▁stash
▁Woo
▁reinstated
▁Joanne
neutral
England
▁Reign
▁Meri
▁addicts
▁Whyte
▁haunting
▁yielded
▁rocker
▁Doncaster
▁quash
▁practiced
▁exported
rf
▁Cannon
▁thereafter
▁repaired
▁abusers
xo
▁Lux
rough
▁unauthorized
▁unsettling
▁Album
▁sprayed
▁worthwhile
▁probing
▁Swedes
▁dreaming
Before
▁Quite
▁Brewer
▁4.4
▁harvesting
▁NYT
▁mechanics
▁verbally
▁Aqua
▁gearing
avon
▁yell
▁arbitrary
▁Lewinsky
▁pedal
▁onwards
violent
lating
▁builders
▁shin
▁Garland
▁Jump
jay
▁bombed
▁archaeologists
▁Boot
▁Adele
▁Slow
▁Parramatta
▁Verizon
▁Vuitton
▁Chappell
▁shrine
▁limelight
▁Burberry
▁purported
▁Broken
▁afforded
▁Hilary
▁Greenland
▁compounded
▁Silk
-200
▁narrowed
▁Whereas
▁Coke
saw
▁Sou
▁possessed
▁soak
▁decorations
▁commemoration
▁dynasty
▁strawberries
▁smuggle
▁sparkle
mitting
▁Mull
▁casualty
▁retrospective
nap
▁Whenever
▁Aero
▁Halifax
▁Infrastructure
▁pyramid
▁Gazette
▁Wire
370
jah
▁stripping
global
▁Crews
▁midwife
▁Mormon
▁colored
LP
▁dyn
▁Butter
Under
although
▁Russ
▁1,300
▁bait
▁contr
▁Polo
titled
TON
IVE
▁Domestic
▁Pall
▁Kiss
prove
▁Engel
▁designation
▁Crowe
centric
kun
deliver
baum
crack
▁Chap
sheet
▁glut
▁Appearing
▁Suzanne
▁pristine
▁Goss
▁wealthiest
lein
▁Hazel
▁Nev
▁amusing
tiva
▁Ritz
▁Laugh
dad
▁betray
▁recess
▁louder
▁dividing
▁Shenzhen
▁Verdict
▁carnage
▁gripped
▁noodles
▁$23
▁recycle
▁Nadia
▁Winning
▁bundled
PF
▁spotting
number
▁Ton
▁Ingram
▁Guests
▁phoned
▁Gender
▁Below
▁$45
▁plum
holm
▁onslaught
▁recollection
▁prowess
▁Tribute
▁Computer
▁sewage
▁Paterson
▁(21
▁leftover
▁unsuccessfully
William
Home
pier
7.5
▁2026
East
▁McInnes
▁philanthropist
▁Soyuz
▁118
▁Brin
cou
▁109
▁detonated
▁Journalists
▁113
▁gasp
▁Bail
hog
:40
▁Soft
▁bruises
▁patterned
▁doctrine
▁Pippa
search
▁01
▁Camden
▁publicist
▁seminar
▁Berger
▁rink
▁outlining
▁networking
▁selecting
assist
▁compatible
▁Leg
▁Disaster
▁Unilever
▁kindergarten
▁acoustic
▁Referr
▁southwester
▁Presley
▁LIVE
▁Chicken
▁Activists
▁fran
▁Armenian
▁newcomer
▁ATM
▁entirety
SNL
▁Gir
▁approving
▁utmost
▁prosperous
▁Casino
▁Tamara
▁snapping
▁1952
Sullivan
▁220
▁Burnett
lapse
▁Cities
engine
▁vol
conduct
▁Administrator
▁Auschwitz
▁applicable
▁crusade
▁fifteen
▁newsletter
▁rotating
▁Nile
▁Luiz
inhua
Op
▁Millie
▁Door
▁117
▁sup
▁banter
▁Basketball
▁relevance
▁renegotiate
▁vegetation
▁Dodge
▁organizer
▁underestimated
▁prescribe
▁alignment
igen
intentional
▁litre
▁vigorously
lder
1.2
▁Superman
pton
▁logged
▁Complete
▁sung
▁Keane
▁kisses
fic
▁heartbeat
knee
▁paved
▁JP
Fo
▁drinkers
▁Dress
liberate
▁payday
eering
▁touchline
▁Aquarius
▁Heitkamp
▁influencing
▁glitch
▁Bottas
uille
▁Likewise
launch
▁trainee
▁Oldman
▁sighting
vik
▁Hearn
▁230
▁medically
▁overcoming
▁Breaking
▁Tay
▁Individual
▁perched
formed
moon
▁Boulevard
▁fugitive
▁metabolic
▁figuring
▁Eugene
eminent
▁Adolf
▁Lack
▁crumbling
▁patio
▁Turks
jou
▁Kem
▁4.1
▁Hurt
▁trait
wir
▁calcium
▁trivial
hopping
▁communicated
▁Hornets
▁Kraft
▁demons
EW
▁Saba
▁humiliated
▁fro
lace
bac
▁pediatric
▁Ventura
▁Alexandre
▁Maurice
▁$75
▁Famous
▁Oli
▁Mosley
▁Manag
Play
▁Motion
▁Tomas
▁deepen
▁brisk
▁Cath
SON
BB
▁abdominal
▁membrane
▁unthinkable
▁Immigrant
▁converge
▁Squad
▁severed
▁gripping
▁NPR
▁Jessie
rino
▁tallest
bab
▁Moment
▁teaser
▁consisted
▁boiled
▁Vine
▁scatter
▁whirlwind
▁Magnus
▁crook
-300
▁footwear
▁Shades
▁accessory
▁tuna
▁intensely
shocked
▁Wake
▁zoom
young
▁Quar
▁poker
rgen
▁eagerly
▁responsive
nchez
▁Polar
▁Alberta
▁cardio
borg
▁dwelling
hope
▁Barclay
8.4
▁fuck
▁Roh
▁Azerbaijan
▁Raikkonen
▁quartet
▁Brigade
cited
▁cyberattack
▁craze
▁Thorpe
▁garner
▁Dunham
▁Judith
▁Cora
▁creamy
▁Campaigners
▁Portrait
▁correlation
▁Ridley
▁shortcomings
▁Suicide
▁Stahl
▁satire
▁240
▁Fuji
▁arming
liberal
▁receipts
▁EV
▁Humphrey
▁Journey
▁endurance
▁Release
▁Ardern
Mur
lapping
illy
▁outlaw
▁envision
shock
▁hoard
▁colt
▁Wage
▁mare
▁Fuel
▁13,000
▁BEIJING
▁concluding
▁motto
▁Zac
▁Greenpeace
▁treble
▁vaginal
▁Factory
avo
▁$2.5
▁Monde
appropriate
▁250,000
House
wch
▁Witness
cool
▁ditched
▁McDermott
▁deteriorating
▁fascination
▁liaison
▁libraries
▁nostalgic
▁complicate
▁ANZ
▁Sundance
▁drip
zhou
▁growers
▁Veteran
▁ANGELES
▁Mackintosh
▁vacancies
▁logistical
HL
▁Pauline
▁echoing
▁bolstered
▁allocation
▁hound
▁factual
▁proclaim
▁Mendes
▁maul
▁prose
▁Hak
▁halved
against
before
agg
▁Photographer
▁chap
ocracy
▁Macdonald
▁choreographer
▁£5,000
▁hefyd
▁Riot
▁southeastern
▁Bruins
▁choking
▁lockdown
▁withheld
▁Northwestern
▁proceeding
▁refine
▁sniper
▁oligarchs
▁defer
▁Stefani
▁dots
▁statistical
▁Accu
▁tease
▁Wah
▁buff
▁Gale
▁Zar
▁Connolly
▁mudslides
▁rubbing
▁Pant
▁coordinating
▁Warrington
Far
▁enroll
▁gael
▁eyeing
terror
▁scr
▁limb
potential
▁£24
▁ISS
▁Robb
▁Northwest
▁accumulation
▁confiscated
▁debilitating
▁107
▁spew
▁Cyn
▁Leroy
▁Moeen
▁Wight
while
▁morality
▁Doing
▁delve
▁hog
▁Brees
▁divest
▁Probably
▁Dorothy
▁Nutrition
▁abdomen
▁novichok
▁silhouette
▁reusable
▁Eastwood
▁forecasting
▁Ard
▁Mode
producing
▁disappoint
▁rhe
▁shun
Cat
▁Antoine
▁happiest
▁irreversible
▁slaying
▁Discuss
▁donning
▁elicit
▁Tube
▁upfront
▁barber
▁Tia
▁Plum
▁flaw
▁downloaded
performance
neur
▁André
▁Cream
▁Elsa
▁composure
▁confinement
▁MLS
▁troupe
▁Barbie
▁Person
▁disgraceful
▁telecom
GT
▁NT
anu
▁Councillor
▁randomly
text
▁Debenhams
▁Salzburg
▁Schultz
▁fraternity
▁Talbot
▁advent
▁isolate
▁Crist
▁waiter
▁civilization
▁4.3
private
believe
▁abstain
▁Kou
▁Champs
lover
▁railing
▁unification
olu
▁ludicrous
▁camouflage
▁stalwart
▁Beatrice
▁IDF
▁Employees
▁Givenchy
▁careless
▁shave
ample
▁barring
LU
▁differentiate
▁Dunk
rw
▁relentlessly
▁peeled
▁Remainers
▁Ethiopian
kilometre
encia
▁Dimitrov
▁impunity
▁regulating
▁Sotheby
▁amenities
▁Technical
▁tremor
▁cowboy
▁Superior
▁windfall
▁battleground
▁$250,000
▁holidaymakers
▁darkest
▁volunteering
technology
▁Tah
▁dissolved
▁Turin
▁plank
office
▁vacancy
▁Rajoy
▁sweetheart
▁hemisphere
▁Trey
▁Witt
National
Watch
▁Armenia
gam
▁Connect
▁unseat
▁Engine
▁Khaled
▁Bei
▁scheduling
▁sprout
pharma
▁Messenger
▁HMS
▁refute
▁stew
▁Leaving
▁1942
▁Dalton
▁loosely
poke
▁reintroduc
▁Francesco
nnen
▁reproduce
Lu
hear
▁Gear
▁Guil
▁Kell
▁exodus
▁revered
▁acclaim
▁Carla
▁pirate
▁inherently
Ky
▁Ora
▁protectionist
▁Griffith
▁apprentice
▁Hathaway
▁McDormand
▁misogyny
▁amusement
▁Wir
▁Tensions
▁Ayrshire
▁crowdfunding
▁Courier
▁harmony
Cal
▁Hurley
▁Kelley
INE
▁owl
aker
London
▁greed
vian
▁perks
▁Shark
▁emphasise
▁Christensen
▁Privacy
▁debacle
▁raucous
▁Inquiry
▁Rabbit
▁specializes
▁cordoned
psycho
▁Sud
▁moan
▁sucked
ullah
activity
▁Calling
▁£22
acci
▁bathing
▁marquee
▁remanded
▁intimidate
▁stumble
▁scorn
▁Sasha
▁Learning
▁Temp
▁Burt
State
▁interviewer
▁Rib
▁nuanced
▁masculinity
▁rainforest
▁heaviest
▁adrift
easy
▁Craft
▁netting
▁Irvine
▁Packer
▁offline
▁Blade
GAAP
▁ideally
▁seeming
▁clutching
▁Whip
▁Carlisle
▁Comedian
▁butterfly
▁Underground
▁bottled
▁hangover
▁viol
▁Spicer
▁backlog
▁Madden
▁Kom
▁Broadcom
▁indefinite
▁Declan
concern
▁quota
▁Cowell
▁Neanderthal
▁initiate
▁stereotype
▁Bram
▁triumphant
ovski
▁streamline
▁thwarted
▁taped
▁Cott
Win
Islam
▁handout
▁harming
▁cuff
▁Aleksandr
▁Attenborough
▁Bahamas
▁styling
▁deferred
▁sandals
▁pooch
▁scarce
▁flattering
▁civilisation
▁GW
growth
why
▁playlist
emic
dicating
▁exhaust
▁developmental
▁9,000
tough
▁Amtrak
▁substantive
▁inundated
▁Depend
▁Internal
ought
chill
▁hello
▁snag
▁Romeo
drop
Face
Angel
▁Cambodian
▁contre
▁defensively
▁arrogant
▁guerrilla
▁Sicily
▁subdued
▁fertiliz
▁positivity
▁mistress
▁Wentz
▁misguided
▁speedy
1.4
▁Impact
▁mobilize
▁comforting
Ab
▁Marketing
▁Helena
▁ADHD
▁EastEnders
▁evaluating
▁Wildcats
▁Shepard
appear
▁handwritten
▁crow
▁validate
▁Keller
▁windy
▁accessorised
▁Illustrated
▁Marilyn
▁disgusted
▁colonies
▁Must
Cam
▁commercially
substantial
▁Jamaican
▁leafy
▁decidedly
▁Calgary
▁Montenegro
▁Dudley
jour
▁rodent
▁Banksy
▁cookbook
▁Francois
▁presided
▁Arrow
▁Wish
▁calculation
▁hauled
▁sync
url
▁rumored
▁Berk
▁mirrored
otto
▁Perri
▁Ek
▁Chao
grass
paced
▁bitterly
pocalypse
▁Kashmir
▁Ladbrokes
▁bipolar
▁emergencies
▁submerged
▁Arlene
▁Legion
30,000
▁Pul
▁Duck
Art
▁professionalism
wu
enstein
dropping
▁Waller
cab
▁Argentinian
▁coherent
▁$150,000
▁spinach
CAN
flying
▁inflated
▁Fighter
/2018
▁CBP
▁Via
Their
ACK
▁abort
mara
▁navigating
▁24/7
▁rediscover
▁Kwa
▁thankfully
▁Elise
between
intelligence
▁mosquito
▁Roo
MM
▁Gupta
▁Kmart
▁Paddock
▁smuggled
▁songstress
▁Rahm
▁backhand
▁Fei
▁swan
▁jokingly
zak
▁supervised
▁Sung
▁ONS
▁Businesses
▁Bauer
▁waived
▁halves
▁sensory
▁Duty
▁finalised
▁$37
▁Medvedev
▁apparatus
▁enraged
▁immortal
▁synonymous
▁microscope
▁Zel
▁Chopra
▁SEAL
▁Kristin
▁defector
▁1941
▁1946
▁Rossi
▁rationale
quist
▁Gad
▁Regis
▁Allow
fifth
▁Berman
majority
fore
▁sped
▁Daimler
▁Guillermo
▁ancestry
▁hepatitis
▁slippery
▁artisan
▁jolt
▁Jarrett
▁systematically
▁Minaj
▁Abby
▁fry
▁Update
lund
▁childbirth
▁Manila
▁fydd
▁pout
▁humane
▁kitten
▁(2)
morning
▁layout
▁Doherty
▁acceleration
▁specialty
▁GRU
▁Rim
▁Islanders
▁nad
▁Bah
Putin
▁Robot
▁Gai
▁bleed
▁Barn
▁liberties
▁unintended
▁Aberdeenshire
▁Learn
▁nonpartisan
▁vandalism
▁favourable
▁observer
▁Livingstone
▁PT
▁Daddy
▁clinging
nium
operative
▁Ride
▁Lighthizer
▁besieged
▁endeavor
▁incarcerated
▁ultrasound
▁venom
▁guise
▁Insight
▁sentimental
▁JU
kou
▁silenced
▁Donaldson
▁£45
▁prevailed
▁scenery
Reilly
▁wonderfully
▁Drop
▁KPMG
▁Kathryn
▁cerebral
▁tragedies
▁unexplained
▁unnoticed
▁Isaiah
awi
▁pothole
▁appease
▁sincerely
▁Lunch
▁Jude
wives
▁Wesley
▁bamboo
▁excavation
▁grammar
▁Stevie
▁Huntington
▁Stick
▁2015-16
▁curled
▁swallowed
▁emboldened
▁Pacers
▁Income
bullying
bate
▁Arch
▁soaked
▁WBA
▁perennial
▁USB
▁classification
▁Toff
string
hoff
▁Mavericks
Reporting
produced
▁Huge
▁patriarch
▁sept
▁Dome
▁Corporate
▁nowadays
▁Bolivia
▁shimmer
▁pigeon
▁swimwear
▁groped
▁Fortune
▁snub
▁Gut
▁disconnect
▁tutor
▁155
Frank
▁shelling
pressure
▁shutter
brother
RES
▁ceased
▁Typhoon
▁encrypted
▁protracted
▁Achilles
▁Paltrow
▁shaky
yang
▁deceptive
▁liking
▁annexation
▁Nationwide
▁alumni
▁scanning
80,000
▁Founded
▁relaxation
▁gutted
▁Bronze
▁amber
▁mourners
▁$1.8
standard
▁commanded
▁charcoal
▁airlifted
▁hairdresser
▁Concord
▁Fay
▁Niall
▁Dion
▁beige
▁astronomers
PORT
▁spearheaded
▁Isn
▁rotate
▁Fantastic
LAND
▁starving
▁knowingly
0.0
▁Bast
▁trilogy
▁Rowling
▁clove
▁Goal
▁800,000
▁1,400
▁cookie
▁Meek
▁prevailing
▁CVS
▁Sturgess
▁artifacts
▁redemption
▁fisheries
▁valve
▁Kellyanne
▁discriminate
▁flashback
▁blight
▁bullies
▁Mariah
▁reconstruct
▁dysfunctional
▁examiner
▁Constitutional
▁Hole
watt
▁Daughter
▁Sylvia
capacity
▁Gruden
▁steered
▁RNA
itter
▁bustling
▁sustaining
▁Alma
▁Gian
▁withholding
▁Increasing
▁earmarked
▁hypothetical
▁InSight
▁MacDonald
▁fries
▁Dominican
▁Progressive
bang
linger
bey
Jul
▁Jungle
▁Depp
▁Farr
Call
150
▁lithium
▁stemmed
▁ruck
▁Russo
▁prematurely
AKE
Lee
▁Vital
Doping
distance
▁standpoint
▁authorised
Sex
▁Fleur
▁Cemetery
▁Champagne
▁Haddad
▁Fringe
▁trawl
roid
▁arranging
▁unreasonable
lateral
▁moped
▁seizing
shift
▁Burg
▁600,000
pocket
▁Feeling
follow
▁pricey
▁drugmaker
▁$29
▁drifted
▁greatness
▁exec
▁Levin
Ju
▁discreet
▁Syracuse
▁prestige
▁infringement
▁Rookie
▁cone
▁Adler
image
▁placebo
▁Pain
▁Pret
▁skyline
▁Barron
▁Atlas
▁(23
▁Nate
▁reviewer
▁Basil
▁Marty
▁TRUMP
▁depuis
▁stiletto
▁Strauss
▁shrugged
▁Greer
▁scrapping
▁choked
drama
▁stitches
Han
▁Atkins
hair
▁wade
AND
▁Ellison
justice
Basically
▁Qa
▁protectionism
▁mammoth
▁memorabilia
▁remnants
▁understated
▁unicorn
▁Idea
▁extortion
▁screenwriter
▁flyer
▁retention
▁Lawn
▁Quan
▁Barrier
▁immensely
ppi
▁Proud
▁gunned
▁ACL
▁Evidence
▁comrade
▁ignorant
▁Sudanese
▁GT
▁Giles
▁nuance
▁flanker
chip
▁treason
▁Lazar
▁3,500
ungen
▁Indy
▁Dolly
▁diversion
▁turtle
izzi
▁Daryl
▁Affleck
▁Carvalhal
▁bombardment
▁feasible
▁futuristic
▁Irwin
inappropriate
▁Telstra
▁Geological
▁Tammy
teria
▁projection
▁finalized
▁hanged
▁Fol
▁checkout
▁Hold
prison
▁NEC
▁emphatic
knuckle
▁Hibernian
▁Aurora
▁distributing
▁Isabella
▁Hawk
▁dean
▁1943
▁roundabout
nikov
▁stretcher
▁lenses
/15
▁Zayn
access
▁Baum
Comp
▁Universities
▁penchant
▁stumbling
▁Argento
▁erotic
▁patriotism
EVER
▁mapping
▁Mobil
▁Lehmann
▁deposition
▁whereby
▁Sunny
▁pathetic
Both
▁bladder
▁Villanova
iso
▁fluffy
▁Titanic
▁Roc
▁Ramon
paper
▁Ligue
▁erased
travel
▁Hough
▁Wyn
▁raven
▁legion
induced
crisis
▁blasting
▁exiting
ggin
▁Elisabeth
▁intervening
▁martyr
vari
▁cladding
▁registering
▁batsmen
▁chipped
▁extracted
▁goose
▁stressing
▁5.2
cloth
▁promo
▁deepening
nail
▁capitalise
3.5
lite
▁Siri
▁manifestation
▁MGM
▁flared
spire
▁fearless
▁DR
▁relinquish
▁cascade
▁vetting
▁Anwar
thank
▁CN
lep
▁Cesar
▁Oster
▁boardroom
gotten
▁Amazing
▁Bally
▁fissure
▁optimal
▁tarmac
▁Randwick
▁Kramer
▁stepfather
▁sweatshirt
▁Haye
/8
▁1936
shithole
ABC
▁ramped
disclosure
▁tornado
▁rewrite
▁Emil
▁Physical
▁languish
▁Gloucestershire
▁tw
▁esports
▁stink
▁Paolo
informed
▁churn
▁Gli
▁Archie
▁1922
▁Colour
▁shutout
▁(3)
▁Duff
▁3.9
▁Parish
▁pointless
▁viewpoint
COM
▁shaved
▁conspiring
▁seldom
▁turbulence
▁Poroshenko
▁apparel
▁mushroom
▁fisherman
▁uncertainties
▁Remove
▁Lille
logging
▁(30
▁reconnect
▁enlist
▁Sz
defunct
provoking
▁MoD
▁contra
▁exhaustion
▁Bullock
▁(£5
▁buffet
habi
▁Feed
▁noticing
▁Croft
▁tattooed
▁Showtime
▁cozy
oose
▁Anglia
▁Hydro
▁kidnap
9.2
▁Tallahassee
▁sediment
▁Saddam
▁tummy
▁Nest
▁Filip
Shi
▁Advance
▁peu
▁Hector
Steve
▁upscale
lab
cry
▁Lucky
▁preservation
▁Pastor
▁meddai
▁Falkirk
▁victorious
▁Elder
▁switches
▁Hof
Without
hler
▁lashing
▁exhausting
▁Grow
bring
▁Georgie
finance
▁intensify
▁manuscript
▁Citigroup
▁Gail
bler
▁skipping
finity
▁Loo
▁brightest
▁proclaimed
▁KO
Dream
Chi
moo
ichi
800
▁Deontay
▁Gottlieb
▁Shooting
▁trespass
please
▁Koh
▁redeem
▁tyre
▁postcard
Young
▁buyout
▁Bullet
▁Basin
▁Gamb
▁CITY
▁Novartis
▁compromising
▁instalment
▁questionnaire
▁Lidl
▁stature
▁brothel
▁£20,000
▁Mint
wie
▁weakest
▁authorization
▁signalling
▁Faye
▁Jacket
▁weave
arra
stretch
▁EA
▁Span
▁Allied
nutrient
▁liner
▁galaxies
▁unconditional
▁behavioural
▁Becca
decade
▁flanked
▁Scal
▁ravaged
▁Seal
▁kneeling
iden
▁ticked
spread
cue
▁Orioles
▁deterioration
▁sublime
▁scuffle
▁merged
▁Cottage
▁cancelling
▁racket
leton
▁Mayfair
▁incite
▁streamed
▁Jeb
democratic
immediate
▁Noor
▁Alternatively
▁pity
evich
▁4.6
▁hypothesis
▁prescribing
▁tirade
▁molested
▁scenic
▁Lombard
▁cocoa
weather
▁Plaid
▁winless
▁halting
▁circumstance
▁baton
▁Pepsi
▁Telv
Green
fresh
▁Wilde
Alex
▁Deripaska
▁marital
▁Naples
▁Trying
▁Goldstein
Peter
▁quell
▁nodded
mining
▁212
▁Saul
▁rendering
▁portal
60,000
bill
▁countered
▁Moh
▁alley
▁yogurt
Ratcliffe
despicable
▁fairytale
▁Aviva
idge
▁documentaries
sector
▁Sit
esi
▁paving
▁delegate
▁Ultimate
▁Annabel
▁Algeria
vita
fighter
▁competitiveness
▁Gwyneth
▁Mehajer
▁hurled
▁Waterloo
▁slashing
4.5
nec
ooze
▁commend
▁Ferry
▁Saban
ARD
ateur
chuk
estate
▁novelty
wearing
▁Choi
chemical
▁premiered
▁socialite
▁Panmunjom
▁Plenty
▁eclectic
▁Staples
▁Prevent
▁Wakefield
▁specialises
▁hospitalization
▁snug
▁Suite
8.2
▁iteration
▁Killing
▁Nur
▁$32
ract
bine
liter
▁Seng
▁Crew
▁Robson
▁Supporting
▁deflect
▁Mitsubishi
▁bigotry
▁elevation
▁giraffe
▁grievous
▁ostensibly
▁poultry
▁LSU
▁Rippon
▁Antrim
▁sauna
▁dotted
▁Santander
▁intrigue
▁£19
▁gateway
▁Theory
▁biker
jon
fill
▁powerless
▁Westwood
▁Mic
▁hospitalised
▁Buchanan
▁climax
▁hesitant
▁biopic
▁Happ
▁Crack
▁Wife
ambi
▁1938
▁panda
bike
▁Cooke
▁blackout
▁excursion
▁idyllic
▁intoxicated
▁£2,000
▁inhibitor
▁plush
▁Oxfordshire
▁continuation
▁littered
▁Juul
▁visually
▁Maxine
▁Juliet
▁Basque
▁Barrow
vation
▁0-1
▁Mori
▁pollster
▁domestically
▁Terror
▁Ancient
▁Practice
▁conspicuous
▁incidence
▁bemoan
▁Auction
▁Gayle
▁mole
June
▁fuelling
▁Cheney
▁inhabit
▁Teacher
▁tripled
▁5-4
urgent
▁Direction
▁Maha
▁Communities
▁Opponent
▁consolidation
▁temperament
▁hynny
▁exchanging
▁caveat
/30
▁passionately
▁Wilbur
developed
▁Horror
▁Lovato
▁liabilities
▁perpetual
▁Cour
essential
▁preventable
▁Founder
▁Guatemalan
▁Beto
▁Rapper
▁Lydia
▁Patriot
▁compel
▁Hanna
▁Gone
KE
▁Specifically
▁hindsight
▁mathematical
▁respite
▁quadruple
▁duchess
▁Breast
▁Purple
Mer
hman
▁relocation
▁mutually
▁strategically
▁Londoners
▁crest
▁como
9.4
industrial
▁Fink
▁Joaquin
▁stimulation
▁mishap
▁invaluable
▁ratchet
▁Johansson
▁sparse
▁Zhu
▁Poppy
▁Site
▁parity
▁Corrie
▁Courtois
▁Course
▁measurement
▁Qatari
courage
▁Siberia
▁Sharing
▁Dill
▁Baxter
▁Carpenter
▁hustle
▁algae
▁savour
▁plasma
▁quizzed
▁Feature
▁enrollment
▁redevelopment
▁eerie
▁persisted
▁Dew
▁boiler
▁Tig
▁plump
▁twee
▁recommending
▁underlined
▁duly
▁personalised
▁5-2
▁1/3
▁virgin
▁PwC
▁handcuffs
▁Fare
▁Padres
▁Hackney
▁Boom
▁ardent
▁starvation
▁Lifetime
▁Clegg
▁widen
▁quieter
▁Keir
▁Fill
▁Citizen
▁Employment
▁Naismith
▁melanoma
▁Shelby
▁Whittaker
▁strawberry
▁Smyth
▁ruffle
▁bumped
▁postdoc
▁punters
video
▁giggle
▁Taco
▁oligarch
▁($5
▁sketches
▁interacting
raj
purpose
Democrat
▁Language
▁clarification
▁mascara
▁Complex
▁shedding
▁Pod
▁WTA
Pat
▁crap
▁Howell
▁AMP
▁interfered
▁rake
boro
Only
▁Turning
▁depot
▁cliché
▁glaring
▁triangle
▁Violet
▁improvised
▁Cornyn
▁crucially
▁frying
hul
emptive
▁Candy
▁invoked
▁Vera
▁tiebreak
Have
▁Available
▁Kirstjen
▁dwindling
▁lizard
▁semiconductor
▁Stafford
▁parody
▁flipping
▁adapting
▁secretaries
▁excel
closed
insky
TU
▁exercised
▁sizeable
▁enthusiast
▁flap
historic
▁waged
▁Carabao
▁Located
▁diligent
▁fantasies
▁solemn
▁unmanned
▁Aniston
▁Avoid
▁Machado
▁clinicians
▁plow
hack
build
▁emphasised
arrow
▁cramp
▁defenseman
model
▁fairer
▁Dara
▁Citing
▁entertained
▁Elite
ograph
cooked
▁theoretical
▁fleeting
▁deserted
▁unused
▁Term
▁CMA
▁fragment
▁BAFTA
▁Dwight
▁Samaritan
▁cardinal
▁clone
▁accumulate
▁Laurence
design
▁Normally
▁reservation
lose
▁Pictured
▁Epic
▁Warhol
JCPOA
▁deceive
▁sponge
▁Mesut
▁ICO
▁Arg
▁raged
▁Typically
▁Fonda
logic
▁Dong
broad
▁Justine
Mag
▁Uncle
▁cherished
▁enormously
▁Birk
▁duel
▁Embiid
▁Timberwolves
▁Candice
▁discord
▁$0
▁bloodshed
▁hijack
▁altar
Ver
▁Valle
talking
▁Meat
▁bribe
these
▁Resolution
▁Tarantino
▁malware
iev
▁Hiro
▁BB
Phil
▁Salmon
▁Nieto
▁mummy
▁breakaway
▁packaged
▁flak
▁appointing
FW
▁Playoff
Very
military
strength
illegal
▁Guerrero
▁Shapiro
▁blizzard
▁nuisance
▁Benefit
▁stabilise
▁Monument
summer
▁Forsyth
hitting
▁portraying
▁carving
▁Bono
▁Protestant
▁cringe
▁sacrificed
▁err
▁sandy
▁Homo
▁Dimon
skilled
▁bedtime
possess
▁Remembrance
▁precursor
▁Socceroos
▁Natalia
▁edible
▁harass
▁Zachary
▁elevate
▁Larson
▁Hailey
skinned
▁recreation
▁Lester
▁waterproof
6.5
▁Albanian
▁combative
drawn
▁AND
rique
▁airstrike
sourced
Christmas
Sunday
▁Chain
▁Explore
▁Waratahs
▁radiant
plate
▁unseen
▁Fixed
▁Darcy
▁tread
▁joyful
▁tracksuit
▁thinner
▁Karim
▁Prada
▁legalize
▁fling
▁hotly
cigarette
▁Bride
▁Extreme
▁remedies
▁Hewitt
▁Peruvian
▁Sonny
▁Quay
▁RF
▁politely
mobil
▁invade
MDB
▁Opinion
▁Sick
See
▁strangely
▁captivity
▁cervical
▁entourage
▁paranoid
▁afflict
▁stifle
▁shepherd
rug
▁Rousey
▁Miz
▁Bulger
their
▁Funding
▁Camera
▁NZ
bug
▁750
▁hovering
hostile
▁Blumenthal
▁refrigerator
▁caregiver
▁Tatum
provide
▁radioactive
▁leapt
▁roaring
buster
Boy
racing
▁hateful
▁geographic
▁128
▁insomnia
▁storing
▁Prospect
▁lymph
mean
▁saliva
▁2/3
brush
▁Cheng
▁Dyson
▁pomp
▁tirelessly
▁obey
Mel
▁Blankenship
▁efficacy
▁outlawed
▁paramount
▁Sinai
▁KGB
▁Dillon
▁BMI
▁Campion
camera
tico
▁Terra
▁tamp
▁adored
▁Audrey
▁Lanarkshire
▁Oversight
▁sodium
▁forfeit
▁unsustainable
gill
▁berries
▁adore
lead
▁Coates
▁newfound
▁organiser
vra
▁Upton
▁headset
cky
limb
▁Liberties
▁Marriage
▁vicinity
▁JFK
▁Charlton
▁loaf
fine
éri
▁Blum
▁Operating
▁romp
▁Brig
education
qi
▁SU
▁stoked
▁analog
▁Tank
layer
▁Shire
likely
▁Bollywood
▁practising
▁sectarian
▁oxide
▁derelict
▁Barnsley
▁Jiang
▁Compared
▁Royce
▁Zack
▁Betts
▁mosquitoes
▁buzzing
▁Ace
earth
▁weekday
▁convene
▁loading
ucker
▁forcefully
laugh
▁Cologne
▁Kearney
▁cucumber
▁curfew
▁egregious
▁hysterical
▁Raisman
▁energ
▁Britney
▁Whale
▁MCG
▁spook
▁ailment
▁Bonnie
▁sans
▁Alfredo
uzzi
▁Aziz
▁Grange
ordinated
euro
▁Principal
Pol
▁McIntyre
▁Volcano
▁likewise
▁postwar
▁Statement
▁regimen
▁hotter
▁Starc
▁softened
▁enhancing
April
▁catalog
▁Elephant
▁Jurors
▁bungalow
▁couture
▁poaching
▁Narendra
▁brunt
▁brewery
▁Peterborough
▁Skinner
▁wiping
▁cryptic
▁Frontier
▁slapping
▁horizontal
▁Crane
▁Gomes
zio
ummy
▁manhunt
▁Isabel
▁Meadow
▁Nicol
▁FL
▁flocked
▁circum
▁Invictus
▁edgy
▁legalized
▁compliant
taker
▁culturally
▁Believe
▁insurgent
▁$1.7
▁Prep
▁Lana
▁confidently
▁eroded
clusion
▁decreasing
▁wicked
▁Burnham
▁hawkish
▁drifting
▁Dickens
▁concoct
▁wrongful
▁Buckley
▁Thing
▁mountainous
▁Absolutely
earned
earn
/23
2.4
Mor
▁Advice
Japan
Emerick
▁pornographic
▁Anaheim
▁Brotherhood
▁drown
▁revoke
▁soaking
▁(25
▁bandage
▁friendlies
▁amused
liev
▁Knowing
▁disapproval
▁Potential
▁inventive
▁focal
▁Belgrade
▁6.3
doesn
▁Tie
rte
▁Ness
▁Garry
voluntary
▁Chrome
▁Uighur
▁McSally
▁painfully
▁disclosing
▁puncture
▁Bild
▁Brooksbank
▁reprise
▁vaping
▁Chiang
▁rebuffed
▁retrial
▁artery
▁1,600
▁8%
rini
▁combating
▁Forensic
▁Mnangagwa
▁Vauxhall
▁complacency
▁obligated
▁penthouse
▁$38
▁fintech
▁tandem
oshi
▁autograph
▁Goldsmith
▁maid
ggie
percent
▁Healy
▁sprinter
▁Rhy
▁backbone
▁interface
▁vigorous
▁Tram
▁Apr
▁policemen
▁hairstyle
mobile
ordination
Bru
▁dribble
▁resonance
▁Axios
▁McArthur
▁Cannabis
▁maximize
▁updating
▁mockery
immer
▁mandated
▁lib
▁dissolve
▁noticeably
▁Saw
▁continu
▁Goff
▁murderous
▁Shir
▁Copper
▁Rotherham
▁schizophrenia
▁ramifications
▁bogus
▁Answer
▁Psycho
▁Kelvin
proud
▁Quiet
▁schoolchildren
▁Punch
▁paramedic
:05
▁Photography
▁Huw
▁Hove
▁Vor
▁embarking
sourcing
▁Jung
credit
▁meaningless
jen
▁Klan
information
▁Mouse
▁homosexual
▁concentrating
▁diameter
▁eyewitness
▁murky
▁Terrorism
40,000
environ
▁trapping
▁salesman
medical
▁airborne
▁1951
▁upmarket
▁reshape
▁Buch
▁dismantled
▁banging
guez
▁crammed
▁disarmament
▁recognisable
▁reprieve
▁Maureen
▁Loren
▁remit
▁prolong
▁Susanna
▁equip
categorically
▁1,5
▁HMP
▁medic
local
▁grandma
▁chatter
▁Kier
▁Throw
escu
▁000
lang
Too
▁Mortgage
▁Sargeant
▁Irma
Sad
▁Blazers
▁buddy
▁handicap
▁Tanya
▁hillside
▁Olly
▁$39
▁nutritionist
rar
▁Trend
▁ridiculed
▁Hua
▁RBI
bili
▁asserting
▁HPV
▁contemplating
▁corroborate
▁emperor
▁machete
▁redundant
▁resolute
▁scrutinise
▁inferior
▁outfielder
▁Leicestershire
▁curated
▁taller
governmental
▁Semi
▁rebate
▁vomit
▁entice
▁$25,000
▁cloudy
Frozen
▁rim
▁Cue
▁Fog
▁LP
▁tangled
▁homeowner
Congratulations
abhorrent
▁Luigi
▁untreated
▁citrus
fascist
▁PSNI
▁toxins
▁cosmic
▁copied
▁Camila
▁groping
Sorry
▁Christophe
▁collide
▁Carrick
▁shone
▁Philipp
alla
payment
▁Drone
▁grinding
▁Kohl
▁Cooperation
▁Fool
Donald
▁Effect
▁Monsanto
▁disgruntled
▁stool
consuming
▁specified
▁inventories
▁Bray
crazy
▁8.30
▁Monkey
▁homo
▁Pressure
▁Frei
title
▁Cork
▁prominently
since
▁spawned
▁Poly
TB
▁($6
phobic
▁fabricated
▁Delaney
▁celebratory
▁Intermediate
roa
▁Ansari
▁swapping
Canada
▁transformative
▁disguised
unga
▁Nay
▁drugged
▁injure
wage
▁270
▁ensued
▁dared
another
▁Roar
▁republican
▁AMC
▁guessing
▁Clint
▁Gamble
▁beleaguered
▁hysteria
▁paralysis
▁unreliable
intercontinental
▁Poppins
policy
▁Cowan
limit
▁fuse
▁Ebbing
▁cured
▁Sheila
▁crossover
▁Email
▁evidently
▁Scotch
▁regal
▁excruciating
▁shrimp
▁Syndrome
▁Enjoy
▁sickening
bush
▁Nicki
▁Missile
▁offend
▁moth
▁GDPR
▁Yankee
▁prostitute
▁Doha
▁correspond
▁gland
comfort
▁Doria
▁Deschamps
▁Julius
▁cinnamon
▁derogatory
▁impromptu
▁precipitation
▁simplicity
▁treacherous
▁Abigail
▁Deloitte
▁Shiffrin
▁scallop
▁woeful
▁trove
▁mismanagement
executive
hawk
collect
slide
▁Caleb
▁foreseeable
▁polymer
▁groundwork
▁commonplace
▁Petty
▁retreated
▁jug
▁touting
▁confer
Rock
luck
picked
▁Greta
▁farmland
▁salty
▁Eiffel
▁coriander
qualified
▁assassinated
▁(5)
▁Eating
examine
▁Emp
▁deteriorate
▁Slu
▁wandered
▁scooped
▁payload
▁shovel
▁Jair
▁convened
hri
▁Leno
▁DiCaprio
▁Zinedine
▁derivative
▁mundane
▁signatories
▁carcass
▁Ironically
▁ushered
▁Jackman
▁Wallis
atti
Australian
▁shielded
▁pollen
▁Pieter
▁coating
▁shaming
▁Browder
▁Gronkowski
▁Pediatric
▁diligence
▁parameters
▁Dickinson
reported
▁digestive
▁Teenager
▁$300,000
hydrate
directed
plication
kilometer
▁literal
▁Nah
buck
▁concerted
▁Reverend
▁fencing
▁prawn
▁reliably
▁Different
▁intestine
▁Walcott
▁Chyna
unprecedented
released
▁Cecilia
▁ETF
▁Deadline
▁Croc
▁Sonia
▁(4)
▁roaming
▁receipt
trapped
▁chilled
▁Esp
▁CBA
▁intrigued
▁truthful
▁Enquirer
▁Holloway
▁Tynecastle
▁striving
▁veterinary
▁liberated
▁synchro
▁budding
▁jerk
▁sushi
▁SD
▁Eritrea
ondo
▁Pregnant
▁analyzing
▁paralysed
▁intrusion
▁rubbed
▁Betsy
counterterrorism
▁Rak
▁Tear
▁conception
▁discouraged
▁Anyway
▁guessed
▁Coal
▁Greenberg
▁grievance
▁crank
▁Marshal
▁£400
▁Gillibrand
▁archipelago
▁sarcastic
▁shuffle
▁courier
▁placard
▁Hidden
▁wagon
▁Kasich
obsessed
tampering
▁motel
fashion
▁Ple
▁regeneration
died
▁Pitch
rower
▁drilled
▁Landry
been
▁Zimmerman
▁distorted
▁Jah
Step
▁Nim
▁reopening
partisan
▁sleepy
▁Rockefeller
▁gigantic
▁predicament
▁Helmets
▁orgasm
▁edging
independence
▁Folau
▁complimentary
▁Saturn
▁Paige
▁Jagger
▁conceive
▁coldest
▁playbook
Leary
extreme
brick
▁Viking
▁OECD
▁Yonhap
▁shrunk
▁Leadsom
▁Costello
▁pulp
▁width
Atlantic
amazing
binding
Davidson
▁Salford
▁unfounded
▁resembled
▁depict
funding
▁poo
▁hooded
▁chuckle
▁Quo
▁booed
▁expresses
▁Lieberman
▁collateral
▁transatlantic
▁vindicate
▁shaft
▁dodgy
▁uptick
▁displacement
▁esp
▁THA
▁Madsen
skirt
Harry
▁Priest
topper
▁prayed
sufficient
▁buildup
▁sac
licate
▁dusty
▁Penelope
▁heterosexual
▁clout
▁mitigation
▁Caracas
▁Lampard
gave
▁Lorenzo
▁sermon
experience
everything
▁Hawley
▁plough
▁$600
▁miner
▁extraction
▁thinly
▁verb
▁Serge
▁Phoebe
▁Valverde
▁culmination
▁enshrine
▁exploding
▁incorporating
▁pineapple
▁spaghetti
▁Schulz
▁Integra
▁piercing
▁Contemporary
▁bridal
▁affirmative
elson
production
▁Schofield
▁Kuala
▁Outdoor
▁Issa
▁Sadio
NYSE
▁£26
▁experimenting
élé
▁hunted
▁physio
opoulos
▁Bernabeu
▁Brigitte
▁Miliband
▁Seacrest
▁Veronica
▁counterfeit
▁infuriated
▁unfinished
▁Inspired
▁derided
▁Rochester
▁Olga
▁Cambridgeshire
selon
question
Talk
▁Voting
▁pry
Bill
▁Broadcasting
Elect
▁diocese
▁reprimand
▁Kimberly
▁recapture
▁lever
▁Chapter
▁Olsen
described
▁ironically
▁Jensen
cash
▁underscored
▁Rockwell
▁Thurman
▁reluctantly
▁dipping
Book
faith
kW
▁dashed
▁offload
▁Presidency
▁Vodafone
▁antioxidant
▁souvenir
▁WWII
▁characterised
▁Collective
▁Rahman
ographer
▁unwelcome
confident
▁revamped
▁extinguish
▁Palin
▁watchers
▁Oleg
▁testifying
▁logging
▁(22
▁Bug
▁Rank
▁buckle
▁universally
2.2
RIP
▁Manbij
▁Nairobi
▁Sweeney
▁irritation
▁sizable
▁truffle
▁Sherlock
▁flout
▁Ibiza
▁outsourcing
▁Shock
▁Buzz
▁Fraud
surface
central
▁Lowry
▁Munro
Ann
▁spoiler
▁4-6
▁Stephenson
▁0800
▁Geordie
▁Everett
▁Navi
▁trimmed
married
▁Huang
▁Phone
▁furry
Marie
▁pretended
▁$36
▁illuminated
▁Toulouse
▁colluded
▁hiatus
▁Pfizer
▁filthy
▁Billionaire
▁NSA
▁Jarvis
▁Turk
▁Raul
▁slab
▁intensifying
Agence
▁sewer
▁restructure
▁Powerball
▁traitor
▁Sheryl
cute
supporting
▁abolished
hotel
▁Simple
▁relic
vile
▁Smithsonian
▁adversity
▁catapult
▁handcuffed
▁incompetence
▁subsidy
▁vertebra
▁Stephanopoulos
▁rigged
▁Plummer
▁Rally
▁polio
▁Sultan
aggressive
Health
▁exacerbate
▁Zarif
▁rightwing
▁Lilly
▁Gain
▁Brew
▁handset
▁lunches
▁democrat
illon
▁Kazan
▁135
▁inexperienced
washingtonpost
▁Ghani
▁rumble
▁HHS
▁Doll
▁ballad
▁Hoover
▁liquidation
Live
▁tasted
▁bred
rella
▁Changing
Australia
▁Sah
▁Giovanni
▁unimaginable
▁indicative
▁dangling
▁Statue
▁tendencies
▁Lineker
▁optional
▁peso
▁Lean
▁Yoshi
▁650
▁shirtless
▁ballroom
▁Dier
▁distinctly
xia
▁Fremantle
▁collaborating
▁mosaic
▁Honour
▁fouled
▁windscreen
▁ornament
▁Crazy
▁Rowland
▁Transfer
▁repaid
▁stardom
▁Leone
▁spoiled
▁Worldwide
▁chemist
▁Rog
▁Pokémon
▁Response
▁mysteries
▁complied
▁PARIS
pital
▁woken
▁simmer
bud
▁Putting
▁Stephan
peace
▁Sno
▁filly
▁RAC
rico
akov
▁intermittent
▁Bluetooth
▁Dolores
▁Loyola
▁Schwarzenegger
▁safari
▁speculative
▁subsidize
▁Hepburn
▁entrant
▁Gifford
▁redacted
▁rue
▁suede
sleep
▁Sikh
▁domination
▁Setting
▁blond
▁breadth
▁avoidance
▁bedside
▁bask
▁Debra
▁pedigree
▁Barbados
▁Grigor
▁optimiz
▁populous
▁charred
▁Sven
▁Argos
▁rotten
soaked
▁ACA
▁consolidate
wrenching
supported
heeled
▁lurking
▁Chill
Fla
Best
▁Basic
▁choreography
▁polluting
▁Lumpur
▁Furious
▁spitting
▁squarely
▁Heinz
▁Milner
▁Webber
▁particle
proper
▁scratching
▁Cran
▁smoothie
▁horribly
▁Hebrew
▁multitude
drenched
▁Crescent
▁Process
▁circumvent
Dear
▁£200,000
shake
bodied
▁confuse
accept
productive
▁CES
▁Clock
▁Ginger
▁Utd
▁3.0
hari
▁Jayne
▁broccoli
▁bubbly
▁sprung
▁incurred
▁Aerospace
▁Fiscal
▁contradictory
▁lagoon
▁Defending
wild
▁Bellew
▁widened
average
▁retake
otta
▁Lough
▁disarm
sighted
▁warring
correct
color
▁Croydon
▁Raqqa
▁Resistance
▁paparazzi
▁diaper
▁Ivory
▁carbs
▁francs
▁strewn
▁donkey
▁engulf
▁mammal
▁ouster
▁kale
copy
▁trooper
▁firsthand
▁Zlatan
▁anticipating
▁bereaved
▁pharmacies
▁Iniesta
▁Martian
▁grieve
▁Constance
▁Shetland
migrant
difficult
▁cherish
Baby
▁Cathy
charge
▁Blackford
▁Mordaunt
▁Sarkozy
▁proclamation
▁satirical
▁10:30
▁Knowles
▁multimedia
▁balm
▁Fitness
confirmed
▁£250
enthusiastically
amu
knit
calc
▁Orwell
▁mayhem
▁gardener
▁GQ
▁contraceptive
▁polluted
▁sloppy
▁template
▁Benson
rgy
athlete
Market
▁1933
▁satin
rival
▁127
▁Bike
gravi
▁Conversation
▁Hutchison
▁Lopetegui
▁Quentin
▁Written
▁petroleum
▁python
▁unresolved
▁Paramount
▁repatriation
▁dismissive
hundred
Prince
▁succumb
▁Kitty
▁slightest
▁Samara
▁vaguely
▁airfield
▁Deng
▁oddly
▁Saleh
▁Johanna
▁rebounded
▁8.5
▁Leach
▁shopper
▁Alvaro
▁Ospreys
▁Philharmonic
▁eponymous
▁incendiary
▁posthumous
▁superficial
▁incremental
▁brunch
▁unmarked
▁infrared
▁foresee
▁rooting
▁forceful
▁leaderboard
▁Alek
▁Vegan
▁Crash
lluding
▁bravely
remain
▁Brenda
▁cramped
▁Hue
▁Nuggets
▁Unsurprisingly
▁Winchester
▁disparities
▁Harrington
▁ornate
▁Crouch
▁Taiwanese
▁Avon
▁Escape
▁capita
▁barge
gression
▁Tag
▁fixes
▁trickle
▁Honolulu
▁Simmonds
▁paramilitary
▁Chadwick
▁intercourse
▁Jag
▁namesake
▁Affair
James
popping
▁gloom
▁260
▁VP
▁Bermuda
▁Funeral
▁Montecito
▁artefacts
▁invariably
▁menacing
▁Nottinghamshire
▁comprising
▁Retired
▁WADA
▁Graves
▁cape
▁Ballon
▁glue
▁lira
▁5.30
▁swathes
▁£39
▁Contest
▁injecting
▁4.7
joy
▁Alejandro
▁Comprehensive
▁Lauderdale
▁memorandum
▁premeditated
▁sampling
▁unresponsive
▁Phelps
▁contraception
▁cradle
▁dealership
▁Jaime
▁keynote
physical
▁poisonous
▁pushback
▁retirees
▁humorous
▁liquidity
▁jeopardize
▁lyric
▁downplayed
▁Patty
crew
▁fairway
▁slaughtered
wish
Grady
▁behemoth
▁dystopian
▁ecstasy
▁resurfaced
▁vibration
▁walnut
▁Bafta
▁irrational
▁bpd
▁adept
▁cigar
▁dapper
▁Separat
citizen
▁Storyful
Keep
▁ridicule
having
seeking
▁accomplishment
cchi
▁buoyed
▁Exit
▁Scheme
lix
▁Maradona
▁abolition
▁Stormzy
conservative
▁farmhouse
▁placenta
▁Commenting
leb
▁endlessly
▁Poole
▁121
▁Khamenei
▁TripAdvisor
▁Wilmington
▁visceral
▁cloak
▁pendant
▁Shaqiri
▁presiding
▁Phase
▁mired
▁Jeep
▁35,000
4.99
▁Thiel
spend
▁Shine
▁newydd
▁zest
▁Gum
ologie
▁Designer
▁augmented
▁weaponry
▁Shoe
radical
logue
▁manned
▁adversary
▁hesitation
▁stipulate
▁Wyatt
ument
increasing
earning
▁reaffirm
▁Beale
▁accentuated
▁unlawfully
▁1,100
▁piling
▁Indies
▁sharpen
gaard
▁assertive
▁$55
▁Naturally
▁Carnoustie
▁CoreLogic
▁Islamabad
▁Lacazette
▁sclerosis
▁Haddish
▁Sheridan
▁Darnold
▁humility
▁Dramatic
▁Jurassic
▁Continental
Universit
▁dugout
▁PBS
company
▁Libby
imagine
▁whitewash
▁Ernest
▁Shame
▁Khalil
▁Resident
enza
▁launder
ikh
▁traveller
ouf
▁Manny
▁Eurasia
▁Horowitz
Presse
▁groove
▁Contract
Improv
▁submitting
▁stainless
▁watershed
▁Rust
▁adjourned
▁Cheese
▁126
▁premi
▁herald
▁distort
RAM
▁fumes
Europe
drome
▁customary
Whether
▁erode
Mary
▁Siberian
pong
▁huddled
▁Reilly
▁sixty
▁correctness
Neil
▁Abramovich
▁Declaration
▁Eduardo
▁Opportunity
▁dismembered
▁hostilities
▁imagining
▁octopus
▁pyjama
▁cruising
▁Anger
▁altering
▁stud
▁Kershaw
▁Desmond
▁Cornish
chairman
▁Tough
▁Regan
▁Glyn
▁Mikael
▁119
Africa
▁countdown
Mark
▁Fest
▁redress
▁icing
▁Parent
came
▁derive
actor
▁Guest
▁Chol
▁Bilbao
▁Cassidy
▁comprehend
▁diarrhea
▁infertility
▁opaque
▁scepticism
▁Mystery
▁Impossible
▁gracious
VT
▁Raleigh
▁Instant
▁repel
▁ramping
▁coughing
▁exiled
▁mechanic
▁crossbar
Pop
▁alright
▁furnish
▁Evolution
▁Klitschko
▁endorsing
▁Widow
▁Theodore
▁crease
▁Petrov
essa
occupied
▁booted
Labour
▁Monty
▁implication
icide
▁joyous
▁Rabbi
UB
▁importing
▁utili
▁cruiser
▁Hurst
gall
▁Nestle
▁16,000
▁intermediate
▁remembrance
▁squeezing
▁swerve
▁arteries
▁veggie
▁Jeanne
▁beetle
RNA
Back
▁ploy
wrote
▁teasing
▁downplay
▁lax
▁deduct
▁Schr
▁Afro
▁coined
▁splashed
▁Lyle
▁Fellaini
▁Rutherford
▁doughnut
▁blazing
▁Kylian
▁Rue
▁waterways
▁Carwyn
▁Takeaway
▁diff
▁Shelton
traditional
▁multimillion
Pierre
Trans
▁clicked
▁Truck
▁Seine
▁Knock
▁decider
▁conservationist
▁doubtful
▁condone
▁Forever
Care
▁gushing
▁Salvadoran
▁searing
▁Muk
▁misconception
▁overcrowded
▁compost
▁Civic
▁warranted
▁knight
▁Sadler
▁standstill
▁preferring
▁Matic
▁docked
▁Fir
▁batted
▁nominal
▁Vivian
▁heartland
crypt
Power
▁holl
▁defuse
▁geared
▁Patient
EAR
▁£27
▁Neo
▁Fig
▁WINNER
▁evaporate
▁drizzle
▁Bliss
▁Policing
▁Camille
▁Partner
▁COP
Saudi
biotic
terrible
stupid
walking
▁Shopping
▁revise
▁conveyed
▁kicker
talling
▁Lime
▁yma
▁Hadi
▁Lidington
▁naughty
▁resembling
▁Napoleon
▁Beattie
police
▁Keynes
▁municipality
▁competence
▁monde
▁Firth
gian
▁Transform
MER
▁Shake
???
▁dictated
ethyl
▁Happen
▁Carmel
▁Chun
▁libertarian
▁manipulating
▁untouched
▁torrent
▁iawn
▁messenger
▁Size
▁Donegal
meet
▁reappear
wealth
▁immuno
▁Provide
middle
▁Tunisian
▁Kerch
▁gong
▁McCar
▁Truman
location
▁Earn
▁spectacularly
▁Cipriani
▁Giuseppe
▁Poverty
▁acronym
▁paranoia
▁Pistons
▁sultry
▁imply
▁pilgrimage
healthy
▁proportionate
edged
▁selfless
▁lynching
▁Zin
▁bowed
might
abuse
▁£90
▁analysing
▁facilitating
▁PayPal
▁denouncing
▁specialised
▁encore
▁Sanford
▁capitalize
▁Springfield
arse
▁Farmer
▁pastel
▁Saga
AV
▁cleanup
▁Dyke
▁fide
▁Active
▁Era
▁incompetent
▁perpetuate
▁reflex
▁shampoo
▁Regiment
▁Mahomes
▁impede
▁detox
▁decorative
▁Emilia
▁banquet
▁Newspaper
▁enjoyment
▁candidly
▁counsellor
▁Roughly
compatible
▁Pavel
▁Older
▁clocked
▁Gren
▁Genetic
civil
▁INF
▁plaintiff
▁Shank
▁Clar
▁strolled
flag
▁Edmonton
▁amnesty
▁immersive
▁impassioned
▁Eileen
▁Nursing
▁refurbishment
▁browsing
▁Rumour
▁contour
▁SPA
kawa
proclaimed
▁WBC
▁petite
▁Ollie
▁creeping
▁Traditional
▁respectable
▁$31
▁Wai
▁Stamp
▁Sense
▁Emirati
▁Ombudsman
▁monsoon
▁Driving
▁Bayliss
▁scaling
▁Oasis
▁torrential
▁Mansfield
▁Weibo
▁Renee
▁witty
▁£21
▁Idris
▁wrecked
fetched
▁Sloan
▁Kawa
▁Samoa
osphere
▁spinoff
▁Pascal
▁wintry
▁reaffirmed
Hol
▁static
▁Manufacturers
▁Omarosa
▁hectic
▁Genoa
▁pretext
▁waging
German
▁defying
Old
▁homered
▁deserving
▁consolidated
!!!!
▁hardened
▁toasted
▁redirect
▁12%
▁McNamara
▁improbable
▁negligent
▁typhoon
▁YouGov
▁Equity
▁Rival
▁Domino
Off
▁clipped
OUR
Through
ICO
▁retrieved
ghi
▁Alto
▁subordinate
▁Isla
Andrew
solid
▁caricature
▁tequila
▁BHP
▁devour
▁Gustav
▁refinery
▁beacon
escence
atsu
▁Pure
together
hib
▁STA
▁Silverman
▁18,000
▁Lafferty
▁Priebus
▁limousine
▁moniker
▁obituary
▁simplify
▁swagger
▁magnate
▁mistreatment
▁Kamala
▁gritty
▁poked
▁differing
▁Sisi
taken
AZ
augur
homme
▁Golan
▁Trace
[...]
